{
  "version": "1.0",
  "truncation": null,
  "padding": null,
  "added_tokens": [
    {
      "id": 0,
      "content": "<pad>",
      "single_word": false,
      "lstrip": false,
      "rstrip": false,
      "normalized": false,
      "special": true
    },
    {
      "id": 1,
      "content": "<unk>",
      "single_word": false,
      "lstrip": false,
      "rstrip": false,
      "normalized": false,
      "special": true
    },
    {
      "id": 2,
      "content": "<bos>",
      "single_word": false,
      "lstrip": false,
      "rstrip": false,
      "normalized": false,
      "special": true
    },
    {
      "id": 3,
      "content": "<eos>",
      "single_word": false,
      "lstrip": false,
      "rstrip": false,
      "normalized": false,
      "special": true
    }
  ],
  "normalizer": null,
  "pre_tokenizer": {
    "type": "Whitespace"
  },
  "post_processor": null,
  "decoder": null,
  "model": {
    "type": "BPE",
    "dropout": null,
    "unk_token": null,
    "continuing_subword_prefix": null,
    "end_of_word_suffix": null,
    "fuse_unk": false,
    "byte_fallback": false,
    "ignore_merges": false,
    "vocab": {
      "<pad>": 0,
      "<unk>": 1,
      "<bos>": 2,
      "<eos>": 3,
      "!": 4,
      "\"": 5,
      "#": 6,
      "$": 7,
      "%": 8,
      "&": 9,
      "'": 10,
      "(": 11,
      ")": 12,
      "*": 13,
      "+": 14,
      ",": 15,
      "-": 16,
      ".": 17,
      "/": 18,
      "0": 19,
      "1": 20,
      "2": 21,
      "3": 22,
      "4": 23,
      "5": 24,
      "6": 25,
      "7": 26,
      "8": 27,
      "9": 28,
      ":": 29,
      ";": 30,
      "<": 31,
      "=": 32,
      ">": 33,
      "?": 34,
      "@": 35,
      "A": 36,
      "B": 37,
      "C": 38,
      "D": 39,
      "E": 40,
      "F": 41,
      "G": 42,
      "H": 43,
      "I": 44,
      "J": 45,
      "K": 46,
      "L": 47,
      "M": 48,
      "N": 49,
      "O": 50,
      "P": 51,
      "Q": 52,
      "R": 53,
      "S": 54,
      "T": 55,
      "U": 56,
      "V": 57,
      "W": 58,
      "X": 59,
      "Y": 60,
      "Z": 61,
      "[": 62,
      "\\": 63,
      "]": 64,
      "^": 65,
      "_": 66,
      "`": 67,
      "a": 68,
      "b": 69,
      "c": 70,
      "d": 71,
      "e": 72,
      "f": 73,
      "g": 74,
      "h": 75,
      "i": 76,
      "j": 77,
      "k": 78,
      "l": 79,
      "m": 80,
      "n": 81,
      "o": 82,
      "p": 83,
      "q": 84,
      "r": 85,
      "s": 86,
      "t": 87,
      "u": 88,
      "v": 89,
      "w": 90,
      "x": 91,
      "y": 92,
      "z": 93,
      "}": 94,
      "~": 95,
      "¡": 96,
      "£": 97,
      "¥": 98,
      "§": 99,
      "°": 100,
      "±": 101,
      "²": 102,
      "³": 103,
      "´": 104,
      "µ": 105,
      "º": 106,
      "½": 107,
      "¿": 108,
      "Á": 109,
      "Ä": 110,
      "Å": 111,
      "Æ": 112,
      "É": 113,
      "Í": 114,
      "Î": 115,
      "Ñ": 116,
      "Ó": 117,
      "Ö": 118,
      "×": 119,
      "Ú": 120,
      "Ü": 121,
      "Þ": 122,
      "ß": 123,
      "à": 124,
      "á": 125,
      "â": 126,
      "ã": 127,
      "ä": 128,
      "å": 129,
      "æ": 130,
      "ç": 131,
      "è": 132,
      "é": 133,
      "ê": 134,
      "ë": 135,
      "í": 136,
      "î": 137,
      "ï": 138,
      "ð": 139,
      "ñ": 140,
      "ó": 141,
      "ô": 142,
      "ö": 143,
      "ø": 144,
      "ù": 145,
      "ú": 146,
      "ü": 147,
      "ā": 148,
      "ă": 149,
      "ą": 150,
      "ć": 151,
      "Č": 152,
      "č": 153,
      "đ": 154,
      "ē": 155,
      "ĕ": 156,
      "ę": 157,
      "ğ": 158,
      "ī": 159,
      "İ": 160,
      "ı": 161,
      "Ľ": 162,
      "Ł": 163,
      "ł": 164,
      "ń": 165,
      "Ō": 166,
      "ō": 167,
      "œ": 168,
      "ř": 169,
      "ś": 170,
      "Ş": 171,
      "ş": 172,
      "Š": 173,
      "š": 174,
      "ţ": 175,
      "ū": 176,
      "ů": 177,
      "ź": 178,
      "Ż": 179,
      "ż": 180,
      "ǎ": 181,
      "Ș": 182,
      "ș": 183,
      "ț": 184,
      "ȯ": 185,
      "ɑ": 186,
      "ɒ": 187,
      "ɔ": 188,
      "ə": 189,
      "ɛ": 190,
      "ɡ": 191,
      "ɪ": 192,
      "ɾ": 193,
      "ʁ": 194,
      "ʃ": 195,
      "ʊ": 196,
      "ʒ": 197,
      "ʔ": 198,
      "ʲ": 199,
      "ʻ": 200,
      "ʿ": 201,
      "ˈ": 202,
      "ˌ": 203,
      "ː": 204,
      "̃": 205,
      "Κ": 206,
      "ά": 207,
      "έ": 208,
      "ή": 209,
      "ί": 210,
      "α": 211,
      "β": 212,
      "γ": 213,
      "δ": 214,
      "ε": 215,
      "θ": 216,
      "ι": 217,
      "κ": 218,
      "λ": 219,
      "μ": 220,
      "ν": 221,
      "ξ": 222,
      "ο": 223,
      "π": 224,
      "ρ": 225,
      "ς": 226,
      "σ": 227,
      "τ": 228,
      "υ": 229,
      "χ": 230,
      "ψ": 231,
      "ό": 232,
      "ώ": 233,
      "В": 234,
      "Г": 235,
      "К": 236,
      "П": 237,
      "С": 238,
      "Я": 239,
      "а": 240,
      "в": 241,
      "г": 242,
      "д": 243,
      "е": 244,
      "з": 245,
      "и": 246,
      "й": 247,
      "к": 248,
      "л": 249,
      "м": 250,
      "н": 251,
      "о": 252,
      "п": 253,
      "р": 254,
      "с": 255,
      "т": 256,
      "ц": 257,
      "ш": 258,
      "ъ": 259,
      "ы": 260,
      "ь": 261,
      "є": 262,
      "א": 263,
      "ב": 264,
      "ג": 265,
      "ה": 266,
      "ו": 267,
      "ז": 268,
      "י": 269,
      "ל": 270,
      "ם": 271,
      "מ": 272,
      "ן": 273,
      "נ": 274,
      "ס": 275,
      "פ": 276,
      "צ": 277,
      "ר": 278,
      "ש": 279,
      "ת": 280,
      "أ": 281,
      "إ": 282,
      "ا": 283,
      "ب": 284,
      "ة": 285,
      "ت": 286,
      "ث": 287,
      "ج": 288,
      "ح": 289,
      "د": 290,
      "ذ": 291,
      "ر": 292,
      "س": 293,
      "ش": 294,
      "ص": 295,
      "ع": 296,
      "ف": 297,
      "ق": 298,
      "ك": 299,
      "ل": 300,
      "م": 301,
      "ن": 302,
      "ه": 303,
      "و": 304,
      "ي": 305,
      "ܐ": 306,
      "ܕ": 307,
      "ܝ": 308,
      "ܢ": 309,
      "ܬ": 310,
      "ं": 311,
      "क": 312,
      "ग": 313,
      "ण": 314,
      "त": 315,
      "द": 316,
      "न": 317,
      "प": 318,
      "म": 319,
      "य": 320,
      "र": 321,
      "ल": 322,
      "व": 323,
      "स": 324,
      "ह": 325,
      "ा": 326,
      "ि": 327,
      "ु": 328,
      "ू": 329,
      "ै": 330,
      "्": 331,
      "ก": 332,
      "ค": 333,
      "ง": 334,
      "ช": 335,
      "ซ": 336,
      "ญ": 337,
      "ฐ": 338,
      "ณ": 339,
      "ด": 340,
      "ต": 341,
      "บ": 342,
      "ป": 343,
      "พ": 344,
      "ภ": 345,
      "ม": 346,
      "ย": 347,
      "ร": 348,
      "ล": 349,
      "ว": 350,
      "ศ": 351,
      "ษ": 352,
      "ส": 353,
      "ห": 354,
      "อ": 355,
      "ั": 356,
      "า": 357,
      "ิ": 358,
      "ี": 359,
      "ึ": 360,
      "เ": 361,
      "แ": 362,
      "ไ": 363,
      "็": 364,
      "่": 365,
      "้": 366,
      "๊": 367,
      "์": 368,
      "ᵻ": 369,
      "ḍ": 370,
      "ḏ": 371,
      "Ḥ": 372,
      "ḥ": 373,
      "ṣ": 374,
      "ṯ": 375,
      "ạ": 376,
      "ἀ": 377,
      "ἰ": 378,
      "ὁ": 379,
      "ὑ": 380,
      "​": 381,
      "‐": 382,
      "‑": 383,
      "–": 384,
      "—": 385,
      "‘": 386,
      "’": 387,
      "“": 388,
      "”": 389,
      "„": 390,
      "†": 391,
      "‡": 392,
      "•": 393,
      "…": 394,
      "′": 395,
      "″": 396,
      "⁄": 397,
      "₤": 398,
      "€": 399,
      "₹": 400,
      "→": 401,
      "−": 402,
      "≡": 403,
      "♭": 404,
      "♯": 405,
      "〜": 406,
      "い": 407,
      "う": 408,
      "お": 409,
      "か": 410,
      "が": 411,
      "き": 412,
      "く": 413,
      "ぐ": 414,
      "こ": 415,
      "さ": 416,
      "し": 417,
      "す": 418,
      "ず": 419,
      "た": 420,
      "だ": 421,
      "ち": 422,
      "っ": 423,
      "つ": 424,
      "と": 425,
      "な": 426,
      "に": 427,
      "の": 428,
      "ば": 429,
      "ひ": 430,
      "ま": 431,
      "み": 432,
      "め": 433,
      "も": 434,
      "ゃ": 435,
      "ゆ": 436,
      "ら": 437,
      "り": 438,
      "る": 439,
      "を": 440,
      "ん": 441,
      "ァ": 442,
      "ア": 443,
      "ィ": 444,
      "イ": 445,
      "ゥ": 446,
      "ェ": 447,
      "エ": 448,
      "ォ": 449,
      "オ": 450,
      "カ": 451,
      "ガ": 452,
      "キ": 453,
      "ク": 454,
      "ゲ": 455,
      "コ": 456,
      "サ": 457,
      "シ": 458,
      "ジ": 459,
      "ス": 460,
      "ズ": 461,
      "セ": 462,
      "タ": 463,
      "ダ": 464,
      "チ": 465,
      "ッ": 466,
      "ツ": 467,
      "テ": 468,
      "デ": 469,
      "ト": 470,
      "ド": 471,
      "ナ": 472,
      "ニ": 473,
      "ネ": 474,
      "ハ": 475,
      "バ": 476,
      "パ": 477,
      "フ": 478,
      "ブ": 479,
      "プ": 480,
      "ヘ": 481,
      "ベ": 482,
      "マ": 483,
      "ミ": 484,
      "ュ": 485,
      "ョ": 486,
      "ラ": 487,
      "リ": 488,
      "ル": 489,
      "レ": 490,
      "ロ": 491,
      "ン": 492,
      "ヴ": 493,
      "・": 494,
      "ー": 495,
      "一": 496,
      "七": 497,
      "下": 498,
      "世": 499,
      "中": 500,
      "乙": 501,
      "九": 502,
      "二": 503,
      "云": 504,
      "人": 505,
      "今": 506,
      "作": 507,
      "侗": 508,
      "傳": 509,
      "光": 510,
      "其": 511,
      "具": 512,
      "円": 513,
      "劇": 514,
      "劉": 515,
      "华": 516,
      "厂": 517,
      "可": 518,
      "台": 519,
      "同": 520,
      "名": 521,
      "君": 522,
      "周": 523,
      "命": 524,
      "咲": 525,
      "四": 526,
      "國": 527,
      "園": 528,
      "圣": 529,
      "坂": 530,
      "堤": 531,
      "場": 532,
      "夕": 533,
      "大": 534,
      "夫": 535,
      "女": 536,
      "妙": 537,
      "姚": 538,
      "子": 539,
      "孟": 540,
      "宋": 541,
      "宗": 542,
      "宝": 543,
      "宫": 544,
      "寺": 545,
      "山": 546,
      "岳": 547,
      "广": 548,
      "建": 549,
      "式": 550,
      "張": 551,
      "彩": 552,
      "後": 553,
      "御": 554,
      "愛": 555,
      "懷": 556,
      "战": 557,
      "戦": 558,
      "拳": 559,
      "挑": 560,
      "放": 561,
      "政": 562,
      "日": 563,
      "旭": 564,
      "明": 565,
      "春": 566,
      "晋": 567,
      "景": 568,
      "未": 569,
      "本": 570,
      "李": 571,
      "村": 572,
      "来": 573,
      "梶": 574,
      "椎": 575,
      "正": 576,
      "殿": 577,
      "母": 578,
      "沙": 579,
      "清": 580,
      "湯": 581,
      "澤": 582,
      "灯": 583,
      "灵": 584,
      "物": 585,
      "玄": 586,
      "王": 587,
      "玩": 588,
      "珂": 589,
      "理": 590,
      "琦": 591,
      "琪": 592,
      "番": 593,
      "瘡": 594,
      "祠": 595,
      "秋": 596,
      "空": 597,
      "絵": 598,
      "織": 599,
      "翠": 600,
      "者": 601,
      "耕": 602,
      "肖": 603,
      "膀": 604,
      "臂": 605,
      "興": 606,
      "良": 607,
      "花": 608,
      "芳": 609,
      "英": 610,
      "蘇": 611,
      "观": 612,
      "解": 613,
      "誓": 614,
      "誡": 615,
      "誰": 616,
      "许": 617,
      "谭": 618,
      "豪": 619,
      "費": 620,
      "贵": 621,
      "赤": 622,
      "運": 623,
      "部": 624,
      "里": 625,
      "金": 626,
      "銃": 627,
      "钱": 628,
      "铁": 629,
      "防": 630,
      "陈": 631,
      "陽": 632,
      "集": 633,
      "霖": 634,
      "韓": 635,
      "願": 636,
      "顯": 637,
      "马": 638,
      "高": 639,
      "대": 640,
      "독": 641,
      "립": 642,
      "병": 643,
      "보": 644,
      "부": 645,
      "연": 646,
      "제": 647,
      "３": 648,
      "�": 649,
      "th": 650,
      "in": 651,
      "er": 652,
      "an": 653,
      "the": 654,
      "on": 655,
      "ed": 656,
      "re": 657,
      "at": 658,
      "or": 659,
      "en": 660,
      "st": 661,
      "al": 662,
      "ar": 663,
      "and": 664,
      "of": 665,
      "as": 666,
      "ing": 667,
      "es": 668,
      "is": 669,
      "to": 670,
      "it": 671,
      "ou": 672,
      "ic": 673,
      "ion": 674,
      "he": 675,
      "le": 676,
      "ro": 677,
      "ac": 678,
      "il": 679,
      "ent": 680,
      "ad": 681,
      "se": 682,
      "am": 683,
      "om": 684,
      "ch": 685,
      "be": 686,
      "ly": 687,
      "for": 688,
      "was": 689,
      "ur": 690,
      "de": 691,
      "ve": 692,
      "ol": 693,
      "The": 694,
      "ir": 695,
      "im": 696,
      "-@": 697,
      "@-@": 698,
      "ig": 699,
      "ow": 700,
      "ith": 701,
      "wh": 702,
      "ter": 703,
      "ver": 704,
      "ay": 705,
      "un": 706,
      "ce": 707,
      "with": 708,
      "ag": 709,
      "ation": 710,
      "that": 711,
      "con": 712,
      "ct": 713,
      "el": 714,
      "id": 715,
      "by": 716,
      "us": 717,
      "ot": 718,
      "ul": 719,
      "te": 720,
      "ere": 721,
      "ri": 722,
      "ap": 723,
      "op": 724,
      "19": 725,
      "um": 726,
      "ain": 727,
      "pl": 728,
      "et": 729,
      "rom": 730,
      "00": 731,
      "ers": 732,
      "oun": 733,
      "res": 734,
      "com": 735,
      "all": 736,
      "ut": 737,
      "ab": 738,
      "ist": 739,
      "his": 740,
      "mo": 741,
      "su": 742,
      "are": 743,
      "from": 744,
      "sh": 745,
      "pro": 746,
      "pe": 747,
      "cl": 748,
      "In": 749,
      "ate": 750,
      "ne": 751,
      "ther": 752,
      "tr": 753,
      "os": 754,
      "ill": 755,
      "ies": 756,
      "em": 757,
      "art": 758,
      "igh": 759,
      "oc": 760,
      "ish": 761,
      "ong": 762,
      "if": 763,
      "est": 764,
      "ex": 765,
      "ard": 766,
      "were": 767,
      "ak": 768,
      "od": 769,
      "iv": 770,
      "ast": 771,
      "ich": 772,
      "ld": 773,
      "man": 774,
      "ber": 775,
      "gh": 776,
      "ive": 777,
      "ant": 778,
      "ess": 779,
      "qu": 780,
      "ort": 781,
      "per": 782,
      "ity": 783,
      "ated": 784,
      "als": 785,
      "out": 786,
      "ment": 787,
      "ame": 788,
      "ack": 789,
      "ord": 790,
      "ud": 791,
      "had": 792,
      "ie": 793,
      "ear": 794,
      "end": 795,
      "ra": 796,
      "tw": 797,
      "ough": 798,
      "our": 799,
      "one": 800,
      "over": 801,
      "which": 802,
      "ound": 803,
      "rit": 804,
      "ip": 805,
      "av": 806,
      "ian": 807,
      "her": 808,
      "ass": 809,
      "not": 810,
      "ight": 811,
      "ine": 812,
      "ge": 813,
      "but": 814,
      "ave": 815,
      "Ch": 816,
      "str": 817,
      "ally": 818,
      "ia": 819,
      "act": 820,
      "gr": 821,
      "200": 822,
      "ary": 823,
      "fir": 824,
      "20": 825,
      "its": 826,
      "af": 827,
      "bl": 828,
      "up": 829,
      "own": 830,
      "du": 831,
      "St": 832,
      "land": 833,
      "ore": 834,
      "port": 835,
      "ous": 836,
      "fe": 837,
      "ide": 838,
      "der": 839,
      "ach": 840,
      "po": 841,
      "first": 842,
      "bo": 843,
      "age": 844,
      "pr": 845,
      "pt": 846,
      "ition": 847,
      "wor": 848,
      "their": 849,
      "play": 850,
      "ell": 851,
      "ould": 852,
      "tim": 853,
      "ical": 854,
      "comp": 855,
      "rec": 856,
      "int": 857,
      "ial": 858,
      "has": 859,
      "also": 860,
      "ok": 861,
      "ire": 862,
      "ep": 863,
      "ll": 864,
      "au": 865,
      "ser": 866,
      "ign": 867,
      "form": 868,
      "ran": 869,
      "sc": 870,
      "ree": 871,
      "lo": 872,
      "aw": 873,
      "ure": 874,
      "He": 875,
      "ction": 876,
      "who": 877,
      "two": 878,
      "other": 879,
      "ome": 880,
      "att": 881,
      "have": 882,
      "18": 883,
      "ev": 884,
      "ke": 885,
      "low": 886,
      "gu": 887,
      "off": 888,
      "uring": 889,
      "ater": 890,
      "been": 891,
      "li": 892,
      "part": 893,
      "cont": 894,
      "ence": 895,
      "ade": 896,
      "201": 897,
      ".@": 898,
      "@.@": 899,
      "ile": 900,
      "sp": 901,
      "ult": 902,
      "ite": 903,
      "fin": 904,
      "It": 905,
      "this": 906,
      "year": 907,
      "pos": 908,
      "ory": 909,
      "An": 910,
      "after": 911,
      "me": 912,
      "ren": 913,
      "ue": 914,
      "des": 915,
      "og": 916,
      "ved": 917,
      "cent": 918,
      "incl": 919,
      ",@": 920,
      "@,@": 921,
      "comm": 922,
      "pres": 923,
      "dis": 924,
      "Th": 925,
      "we": 926,
      "iz": 927,
      "ric": 928,
      "ark": 929,
      "able": 930,
      "cre": 931,
      "she": 932,
      "ace": 933,
      "old": 934,
      "ice": 935,
      "ations": 936,
      "ans": 937,
      "pre": 938,
      "Un": 939,
      "ship": 940,
      "ib": 941,
      "ount": 942,
      "air": 943,
      "ru": 944,
      "ever": 945,
      "they": 946,
      "ces": 947,
      "work": 948,
      "time": 949,
      "co": 950,
      "ance": 951,
      "ind": 952,
      "ph": 953,
      "ason": 954,
      "main": 955,
      "ied": 956,
      "ions": 957,
      "fer": 958,
      "ced": 959,
      "way": 960,
      "rough": 961,
      "ited": 962,
      "more": 963,
      "into": 964,
      "mer": 965,
      "fl": 966,
      "inter": 967,
      "red": 968,
      "ann": 969,
      "spe": 970,
      "tem": 971,
      "ath": 972,
      "vel": 973,
      "song": 974,
      "most": 975,
      "urn": 976,
      "ens": 977,
      "Ar": 978,
      "mon": 979,
      "includ": 980,
      "arch": 981,
      "ious": 982,
      "ts": 983,
      "fore": 984,
      "no": 985,
      "would": 986,
      "bec": 987,
      "used": 988,
      "cted": 989,
      "him": 990,
      "ild": 991,
      "ased": 992,
      "though": 993,
      "ang": 994,
      "amp": 995,
      "ail": 996,
      "ft": 997,
      "any": 998,
      "new": 999,
      "ates": 1000,
      "ubl": 1001,
      "ings": 1002,
      "ry": 1003,
      "cess": 1004,
      "ob": 1005,
      "ew": 1006,
      "les": 1007,
      "cond": 1008,
      "Au": 1009,
      "son": 1010,
      "ake": 1011,
      "vers": 1012,
      "En": 1013,
      "oy": 1014,
      "ick": 1015,
      "ase": 1016,
      "ix": 1017,
      "bu": 1018,
      "199": 1019,
      "ted": 1020,
      "bum": 1021,
      "under": 1022,
      "during": 1023,
      "record": 1024,
      "Al": 1025,
      "ors": 1026,
      "ood": 1027,
      "season": 1028,
      "reg": 1029,
      "ents": 1030,
      "min": 1031,
      "ron": 1032,
      "only": 1033,
      "day": 1034,
      "ward": 1035,
      "row": 1036,
      "gan": 1037,
      "Jo": 1038,
      "ret": 1039,
      "Re": 1040,
      "ular": 1041,
      "them": 1042,
      "ten": 1043,
      "col": 1044,
      "when": 1045,
      "ision": 1046,
      "ock": 1047,
      "album": 1048,
      "ollow": 1049,
      "about": 1050,
      "num": 1051,
      "stru": 1052,
      "three": 1053,
      "rel": 1054,
      "char": 1055,
      "can": 1056,
      "gen": 1057,
      "writ": 1058,
      "ful": 1059,
      "ational": 1060,
      "kn": 1061,
      "io": 1062,
      "produ": 1063,
      "Wh": 1064,
      "een": 1065,
      "sing": 1066,
      "some": 1067,
      "again": 1068,
      "Af": 1069,
      "then": 1070,
      "while": 1071,
      "ilm": 1072,
      "ton": 1073,
      "ern": 1074,
      "On": 1075,
      "ins": 1076,
      "lar": 1077,
      "ered": 1078,
      "game": 1079,
      "Le": 1080,
      "rele": 1081,
      "ict": 1082,
      "ty": 1083,
      "ele": 1084,
      "10": 1085,
      "made": 1086,
      "outh": 1087,
      "so": 1088,
      "ating": 1089,
      "ury": 1090,
      "my": 1091,
      "Com": 1092,
      "De": 1093,
      "than": 1094,
      "iew": 1095,
      "000": 1096,
      "As": 1097,
      "where": 1098,
      "ose": 1099,
      "nor": 1100,
      "through": 1101,
      "four": 1102,
      "cons": 1103,
      "ily": 1104,
      "ust": 1105,
      "set": 1106,
      "ames": 1107,
      "led": 1108,
      "tween": 1109,
      "between": 1110,
      "aid": 1111,
      "ished": 1112,
      "second": 1113,
      "sy": 1114,
      "ck": 1115,
      "sub": 1116,
      "later": 1117,
      "publ": 1118,
      "Brit": 1119,
      "usic": 1120,
      "high": 1121,
      "lan": 1122,
      "ub": 1123,
      "well": 1124,
      "cap": 1125,
      "film": 1126,
      "sel": 1127,
      "No": 1128,
      "iss": 1129,
      "number": 1130,
      "New": 1131,
      "br": 1132,
      "sup": 1133,
      "follow": 1134,
      "17": 1135,
      "med": 1136,
      "cho": 1137,
      "do": 1138,
      "spec": 1139,
      "hn": 1140,
      "appe": 1141,
      "such": 1142,
      "12": 1143,
      "before": 1144,
      "ven": 1145,
      "view": 1146,
      "ities": 1147,
      "go": 1148,
      "ics": 1149,
      "iel": 1150,
      "sur": 1151,
      "16": 1152,
      "Eng": 1153,
      "back": 1154,
      "being": 1155,
      "Sh": 1156,
      "line": 1157,
      "add": 1158,
      "je": 1159,
      "ning": 1160,
      "This": 1161,
      "ef": 1162,
      "ters": 1163,
      "John": 1164,
      "ince": 1165,
      "owever": 1166,
      "ative": 1167,
      "198": 1168,
      "years": 1169,
      "Nor": 1170,
      "hel": 1171,
      "cur": 1172,
      "..": 1173,
      "mber": 1174,
      "arri": 1175,
      "II": 1176,
      "ised": 1177,
      "many": 1178,
      "At": 1179,
      "there": 1180,
      "cer": 1181,
      "urch": 1182,
      "rib": 1183,
      "both": 1184,
      "Con": 1185,
      "ual": 1186,
      "15": 1187,
      "ey": 1188,
      "found": 1189,
      "ma": 1190,
      "meric": 1191,
      "Americ": 1192,
      "Ger": 1193,
      "loc": 1194,
      "ific": 1195,
      "ause": 1196,
      "appear": 1197,
      "olog": 1198,
      "point": 1199,
      "series": 1200,
      "known": 1201,
      "ek": 1202,
      "reat": 1203,
      "ale": 1204,
      "ball": 1205,
      "including": 1206,
      "suc": 1207,
      "rop": 1208,
      "call": 1209,
      "ped": 1210,
      "sever": 1211,
      "az": 1212,
      "igin": 1213,
      "hy": 1214,
      "long": 1215,
      "atch": 1216,
      "ife": 1217,
      "par": 1218,
      "ond": 1219,
      "pop": 1220,
      "tain": 1221,
      "She": 1222,
      "ros": 1223,
      "use": 1224,
      "cept": 1225,
      "United": 1226,
      "ments": 1227,
      "ines": 1228,
      "dec": 1229,
      "became": 1230,
      "feat": 1231,
      "ane": 1232,
      "stud": 1233,
      "ise": 1234,
      "side": 1235,
      "charac": 1236,
      "like": 1237,
      "oper": 1238,
      "194": 1239,
      "British": 1240,
      "ste": 1241,
      "Mar": 1242,
      "unt": 1243,
      "After": 1244,
      "Br": 1245,
      "hist": 1246,
      "ress": 1247,
      "ived": 1248,
      "eng": 1249,
      "century": 1250,
      "lead": 1251,
      "desc": 1252,
      "ley": 1253,
      "team": 1254,
      "ield": 1255,
      "dire": 1256,
      "remain": 1257,
      "dif": 1258,
      "origin": 1259,
      "velop": 1260,
      "down": 1261,
      "against": 1262,
      "ca": 1263,
      "oup": 1264,
      "13": 1265,
      "show": 1266,
      "sign": 1267,
      "fam": 1268,
      "sm": 1269,
      "serv": 1270,
      "cord": 1271,
      "Gr": 1272,
      "itt": 1273,
      "mill": 1274,
      "try": 1275,
      "contin": 1276,
      "music": 1277,
      "mem": 1278,
      "chool": 1279,
      "Her": 1280,
      "began": 1281,
      "oot": 1282,
      "tow": 1283,
      "war": 1284,
      "peri": 1285,
      "success": 1286,
      "orn": 1287,
      "gust": 1288,
      "dam": 1289,
      "Wor": 1290,
      "ized": 1291,
      "dr": 1292,
      "rist": 1293,
      "ject": 1294,
      "trans": 1295,
      "ures": 1296,
      "several": 1297,
      "ost": 1298,
      "ash": 1299,
      "prov": 1300,
      "uch": 1301,
      "aking": 1302,
      "crit": 1303,
      "ident": 1304,
      "mil": 1305,
      "epis": 1306,
      "could": 1307,
      "pol": 1308,
      "ople": 1309,
      "ble": 1310,
      "ink": 1311,
      "ank": 1312,
      "open": 1313,
      "Gu": 1314,
      "Se": 1315,
      "ode": 1316,
      "0s": 1317,
      "mi": 1318,
      "ended": 1319,
      "14": 1320,
      "bel": 1321,
      "comple": 1322,
      "head": 1323,
      "city": 1324,
      "cover": 1325,
      "May": 1326,
      "por": 1327,
      "oman": 1328,
      "did": 1329,
      "ons": 1330,
      "road": 1331,
      "overn": 1332,
      "develop": 1333,
      "pass": 1334,
      "ually": 1335,
      "val": 1336,
      "rece": 1337,
      "list": 1338,
      "che": 1339,
      "west": 1340,
      "stor": 1341,
      "self": 1342,
      "pers": 1343,
      "early": 1344,
      "present": 1345,
      "light": 1346,
      "said": 1347,
      "ham": 1348,
      "position": 1349,
      "iet": 1350,
      "met": 1351,
      "197": 1352,
      "Dy": 1353,
      "near": 1354,
      "ae": 1355,
      "gest": 1356,
      "eral": 1357,
      "196": 1358,
      "cy": 1359,
      "ower": 1360,
      "August": 1361,
      "For": 1362,
      "gun": 1363,
      "ston": 1364,
      "along": 1365,
      "prev": 1366,
      "book": 1367,
      "vol": 1368,
      "Car": 1369,
      "War": 1370,
      "offic": 1371,
      "ided": 1372,
      "dist": 1373,
      "run": 1374,
      "aged": 1375,
      "ivision": 1376,
      "Is": 1377,
      "each": 1378,
      "leg": 1379,
      "support": 1380,
      "Ju": 1381,
      "these": 1382,
      "Sc": 1383,
      "amed": 1384,
      "coun": 1385,
      "Bl": 1386,
      "aim": 1387,
      "win": 1388,
      "Ro": 1389,
      "top": 1390,
      "def": 1391,
      "because": 1392,
      "ather": 1393,
      "care": 1394,
      "may": 1395,
      "thern": 1396,
      "million": 1397,
      "atter": 1398,
      "six": 1399,
      "released": 1400,
      "adv": 1401,
      "German": 1402,
      "five": 1403,
      "prote": 1404,
      "played": 1405,
      "ird": 1406,
      "called": 1407,
      "ially": 1408,
      "ross": 1409,
      "tit": 1410,
      "ctor": 1411,
      "30": 1412,
      "ouse": 1413,
      "ists": 1414,
      "ground": 1415,
      "field": 1416,
      "ov": 1417,
      "same": 1418,
      "plac": 1419,
      "people": 1420,
      "describ": 1421,
      "Cl": 1422,
      "dep": 1423,
      "return": 1424,
      "large": 1425,
      "American": 1426,
      "until": 1427,
      "Can": 1428,
      "read": 1429,
      "state": 1430,
      "start": 1431,
      "However": 1432,
      "ah": 1433,
      "east": 1434,
      "km": 1435,
      "var": 1436,
      "now": 1437,
      "less": 1438,
      "They": 1439,
      "mark": 1440,
      "ible": 1441,
      "Be": 1442,
      "episode": 1443,
      "une": 1444,
      "attack": 1445,
      "195": 1446,
      "design": 1447,
      "formed": 1448,
      "25": 1449,
      "national": 1450,
      "come": 1451,
      "grap": 1452,
      "US": 1453,
      "dra": 1454,
      "arm": 1455,
      "rote": 1456,
      "week": 1457,
      "car": 1458,
      "ism": 1459,
      "final": 1460,
      "following": 1461,
      "small": 1462,
      "Jan": 1463,
      "Pl": 1464,
      "Ac": 1465,
      "enn": 1466,
      "Dylan": 1467,
      "Sep": 1468,
      "fic": 1469,
      "World": 1470,
      "dom": 1471,
      "ural": 1472,
      "cle": 1473,
      "ery": 1474,
      "sim": 1475,
      "cording": 1476,
      "overnment": 1477,
      "ivers": 1478,
      "oss": 1479,
      "character": 1480,
      "oth": 1481,
      "reach": 1482,
      "ague": 1483,
      "ured": 1484,
      "tember": 1485,
      "September": 1486,
      "All": 1487,
      "get": 1488,
      "Oc": 1489,
      "Man": 1490,
      "life": 1491,
      "ops": 1492,
      "build": 1493,
      "cr": 1494,
      "cast": 1495,
      "prom": 1496,
      "fun": 1497,
      "school": 1498,
      "press": 1499,
      "gin": 1500,
      "stem": 1501,
      "took": 1502,
      "ired": 1503,
      "11": 1504,
      "ional": 1505,
      "jor": 1506,
      "men": 1507,
      "around": 1508,
      "ese": 1509,
      "public": 1510,
      "cut": 1511,
      "iam": 1512,
      "tri": 1513,
      "allow": 1514,
      "ined": 1515,
      "requ": 1516,
      "stral": 1517,
      "consid": 1518,
      "lish": 1519,
      "ork": 1520,
      "contro": 1521,
      "sk": 1522,
      "itar": 1523,
      "ody": 1524,
      "Christ": 1525,
      "continu": 1526,
      "since": 1527,
      "partic": 1528,
      "will": 1529,
      "Eu": 1530,
      "xt": 1531,
      "ime": 1532,
      "inc": 1533,
      "tober": 1534,
      "October": 1535,
      "Fran": 1536,
      "King": 1537,
      "la": 1538,
      "won": 1539,
      "child": 1540,
      "town": 1541,
      "bers": 1542,
      "just": 1543,
      "tal": 1544,
      "Col": 1545,
      "stand": 1546,
      "ilt": 1547,
      "name": 1548,
      "aving": 1549,
      "England": 1550,
      "home": 1551,
      "uary": 1552,
      "ves": 1553,
      "last": 1554,
      "group": 1555,
      "fect": 1556,
      "ony": 1557,
      "York": 1558,
      "very": 1559,
      "ext": 1560,
      "Austral": 1561,
      "report": 1562,
      "result": 1563,
      "fle": 1564,
      "giv": 1565,
      "north": 1566,
      "count": 1567,
      "vis": 1568,
      "area": 1569,
      "miss": 1570,
      "ove": 1571,
      "ained": 1572,
      "family": 1573,
      "received": 1574,
      "ility": 1575,
      "ians": 1576,
      "even": 1577,
      "ina": 1578,
      "let": 1579,
      "place": 1580,
      "bre": 1581,
      "Ad": 1582,
      "soc": 1583,
      "world": 1584,
      "ships": 1585,
      "single": 1586,
      "June": 1587,
      "mar": 1588,
      "ages": 1589,
      "included": 1590,
      "West": 1591,
      "issu": 1592,
      "States": 1593,
      "dest": 1594,
      "193": 1595,
      "claim": 1596,
      "rench": 1597,
      "wards": 1598,
      "ately": 1599,
      "band": 1600,
      "games": 1601,
      "hal": 1602,
      "what": 1603,
      "And": 1604,
      "North": 1605,
      "ute": 1606,
      "batt": 1607,
      "cour": 1608,
      "power": 1609,
      "Fe": 1610,
      "During": 1611,
      "ats": 1612,
      "ences": 1613,
      "although": 1614,
      "ides": 1615,
      "club": 1616,
      "January": 1617,
      "named": 1618,
      "Mc": 1619,
      "cra": 1620,
      "late": 1621,
      "sequ": 1622,
      "ets": 1623,
      "poss": 1624,
      "pen": 1625,
      "ris": 1626,
      "eder": 1627,
      "left": 1628,
      "camp": 1629,
      "gre": 1630,
      "another": 1631,
      "ently": 1632,
      "constru": 1633,
      "king": 1634,
      "ars": 1635,
      "roy": 1636,
      "rown": 1637,
      "resp": 1638,
      "Roman": 1639,
      "described": 1640,
      "previous": 1641,
      "gy": 1642,
      "pri": 1643,
      "sent": 1644,
      "moved": 1645,
      "right": 1646,
      "south": 1647,
      "Te": 1648,
      "within": 1649,
      "short": 1650,
      "songs": 1651,
      "built": 1652,
      "Nove": 1653,
      "fur": 1654,
      "ys": 1655,
      "incre": 1656,
      "Ind": 1657,
      "Ste": 1658,
      "wrote": 1659,
      "July": 1660,
      "November": 1661,
      "much": 1662,
      "Euro": 1663,
      "government": 1664,
      "original": 1665,
      "hum": 1666,
      "review": 1667,
      "2010": 1668,
      "ple": 1669,
      "pect": 1670,
      "class": 1671,
      "ral": 1672,
      "ude": 1673,
      "organ": 1674,
      "sty": 1675,
      "South": 1676,
      "ner": 1677,
      "rest": 1678,
      "ored": 1679,
      "story": 1680,
      "tempt": 1681,
      "Me": 1682,
      "ium": 1683,
      "major": 1684,
      "person": 1685,
      "ting": 1686,
      "Canad": 1687,
      "ards": 1688,
      "French": 1689,
      "church": 1690,
      "Ire": 1691,
      "Pol": 1692,
      "avy": 1693,
      "track": 1694,
      "ement": 1695,
      "By": 1696,
      "ales": 1697,
      "differ": 1698,
      "Europe": 1699,
      "Apr": 1700,
      "April": 1701,
      "Bo": 1702,
      "ically": 1703,
      "akes": 1704,
      "due": 1705,
      "command": 1706,
      "Ireland": 1707,
      "expl": 1708,
      "iation": 1709,
      "ness": 1710,
      "storm": 1711,
      "bar": 1712,
      "bro": 1713,
      "ask": 1714,
      "There": 1715,
      "based": 1716,
      "attempt": 1717,
      "ital": 1718,
      "Pr": 1719,
      "best": 1720,
      "order": 1721,
      "...": 1722,
      "career": 1723,
      "24": 1724,
      "period": 1725,
      "craft": 1726,
      "ains": 1727,
      "hand": 1728,
      "match": 1729,
      "ico": 1730,
      "ideo": 1731,
      "oute": 1732,
      "Par": 1733,
      "ier": 1734,
      "riend": 1735,
      "ified": 1736,
      "itary": 1737,
      "ax": 1738,
      "using": 1739,
      "appro": 1740,
      "death": 1741,
      "Dece": 1742,
      "draw": 1743,
      "Ge": 1744,
      "December": 1745,
      "Pe": 1746,
      "turn": 1747,
      "flu": 1748,
      "iver": 1749,
      "2009": 1750,
      "National": 1751,
      "jo": 1752,
      "make": 1753,
      "ving": 1754,
      "ives": 1755,
      "ants": 1756,
      "fr": 1757,
      "50": 1758,
      "Or": 1759,
      "fall": 1760,
      "third": 1761,
      "Jack": 1762,
      "forman": 1763,
      "March": 1764,
      "recorded": 1765,
      "Old": 1766,
      "ling": 1767,
      "init": 1768,
      "system": 1769,
      "Pro": 1770,
      "den": 1771,
      "fact": 1772,
      "ient": 1773,
      "wind": 1774,
      "Division": 1775,
      "sol": 1776,
      "site": 1777,
      "species": 1778,
      "addition": 1779,
      "Ev": 1780,
      "fire": 1781,
      "event": 1782,
      "history": 1783,
      "belie": 1784,
      "Mon": 1785,
      "local": 1786,
      "Som": 1787,
      "mp": 1788,
      "ster": 1789,
      "elt": 1790,
      "Feder": 1791,
      "god": 1792,
      "sl": 1793,
      "vision": 1794,
      "Ear": 1795,
      "ged": 1796,
      "His": 1797,
      "round": 1798,
      "force": 1799,
      "City": 1800,
      "We": 1801,
      "month": 1802,
      "21": 1803,
      "those": 1804,
      "ched": 1805,
      "ulation": 1806,
      "half": 1807,
      "26": 1808,
      "Per": 1809,
      "thing": 1810,
      "que": 1811,
      "mid": 1812,
      "ilar": 1813,
      "gener": 1814,
      "Sp": 1815,
      "foot": 1816,
      "stri": 1817,
      "bert": 1818,
      "strong": 1819,
      "ai": 1820,
      "fac": 1821,
      "thor": 1822,
      "ford": 1823,
      "estab": 1824,
      "ature": 1825,
      "role": 1826,
      "chan": 1827,
      "former": 1828,
      "cas": 1829,
      "say": 1830,
      "stit": 1831,
      "ament": 1832,
      "2007": 1833,
      "put": 1834,
      "fort": 1835,
      "real": 1836,
      "urric": 1837,
      "When": 1838,
      "ister": 1839,
      "sug": 1840,
      "title": 1841,
      "iversity": 1842,
      "mand": 1843,
      "water": 1844,
      "still": 1845,
      "arn": 1846,
      "app": 1847,
      "2006": 1848,
      "23": 1849,
      "28": 1850,
      "aining": 1851,
      "Char": 1852,
      "ger": 1853,
      "100": 1854,
      "ense": 1855,
      "Co": 1856,
      "performan": 1857,
      "colle": 1858,
      "ribut": 1859,
      "away": 1860,
      "ms": 1861,
      "iter": 1862,
      "ull": 1863,
      "production": 1864,
      "2008": 1865,
      "player": 1866,
      "Town": 1867,
      "kill": 1868,
      "sou": 1869,
      "ali": 1870,
      "seven": 1871,
      "trad": 1872,
      "Federer": 1873,
      "came": 1874,
      "und": 1875,
      "house": 1876,
      "company": 1877,
      "published": 1878,
      "Tw": 1879,
      "ush": 1880,
      "aken": 1881,
      "tract": 1882,
      "aster": 1883,
      "prof": 1884,
      "considered": 1885,
      "lim": 1886,
      "2011": 1887,
      "placed": 1888,
      "version": 1889,
      "English": 1890,
      "continued": 1891,
      "Count": 1892,
      "quar": 1893,
      "release": 1894,
      "held": 1895,
      "move": 1896,
      "flo": 1897,
      "ensive": 1898,
      "suggest": 1899,
      "With": 1900,
      "pite": 1901,
      "often": 1902,
      "import": 1903,
      "commun": 1904,
      "Although": 1905,
      "successful": 1906,
      "Su": 1907,
      "mag": 1908,
      "According": 1909,
      "Will": 1910,
      "iment": 1911,
      "ropical": 1912,
      "anc": 1913,
      "next": 1914,
      "written": 1915,
      "law": 1916,
      "ript": 1917,
      "struct": 1918,
      "na": 1919,
      "cult": 1920,
      "27": 1921,
      "mix": 1922,
      "sold": 1923,
      "refer": 1924,
      "imes": 1925,
      "plan": 1926,
      "Black": 1927,
      "further": 1928,
      "tar": 1929,
      "among": 1930,
      "how": 1931,
      "video": 1932,
      "Care": 1933,
      "Ser": 1934,
      "hold": 1935,
      "ordan": 1936,
      "you": 1937,
      "posed": 1938,
      "ared": 1939,
      "Jordan": 1940,
      "fan": 1941,
      "few": 1942,
      "popular": 1943,
      "Tech": 1944,
      "Ne": 1945,
      "body": 1946,
      "omin": 1947,
      "without": 1948,
      "uss": 1949,
      "ending": 1950,
      "action": 1951,
      "produced": 1952,
      "ittle": 1953,
      "Gen": 1954,
      "ours": 1955,
      "augh": 1956,
      "Pal": 1957,
      "Park": 1958,
      "gl": 1959,
      "League": 1960,
      "effect": 1961,
      "Roy": 1962,
      "wide": 1963,
      "wood": 1964,
      "ino": 1965,
      "chart": 1966,
      "chang": 1967,
      "ailed": 1968,
      "military": 1969,
      "similar": 1970,
      "Ph": 1971,
      "Tr": 1972,
      "night": 1973,
      "become": 1974,
      "2013": 1975,
      "particular": 1976,
      "different": 1977,
      "Mount": 1978,
      "ik": 1979,
      "star": 1980,
      "aeolog": 1981,
      "bru": 1982,
      "State": 1983,
      "times": 1984,
      "author": 1985,
      "div": 1986,
      "heel": 1987,
      "Hero": 1988,
      "Des": 1989,
      "tele": 1990,
      "ively": 1991,
      "anted": 1992,
      "polit": 1993,
      "cor": 1994,
      "level": 1995,
      "stead": 1996,
      "reached": 1997,
      "children": 1998,
      "destroy": 1999,
      "ait": 2000,
      "Afric": 2001,
      "histor": 2002,
      "Scot": 2003,
      "style": 2004,
      "One": 2005,
      "rap": 2006,
      "ices": 2007,
      "country": 2008,
      "close": 2009,
      "iety": 2010,
      "urricane": 2011,
      "Air": 2012,
      "ff": 2013,
      "take": 2014,
      "friend": 2015,
      "ator": 2016,
      "post": 2017,
      "days": 2018,
      "Ex": 2019,
      "gave": 2020,
      "ref": 2021,
      "project": 2022,
      "manag": 2023,
      "quad": 2024,
      "members": 2025,
      "building": 2026,
      "however": 2027,
      "idge": 2028,
      "teen": 2029,
      "equ": 2030,
      "board": 2031,
      "fron": 2032,
      "mb": 2033,
      "sit": 2034,
      "seen": 2035,
      "poem": 2036,
      "include": 2037,
      "given": 2038,
      "free": 2039,
      "having": 2040,
      "influ": 2041,
      "ument": 2042,
      "University": 2043,
      "invol": 2044,
      "find": 2045,
      "mit": 2046,
      "making": 2047,
      "tro": 2048,
      "ope": 2049,
      "ondon": 2050,
      "critic": 2051,
      "father": 2052,
      "atic": 2053,
      "stre": 2054,
      "abor": 2055,
      "served": 2056,
      "Grand": 2057,
      "stated": 2058,
      "London": 2059,
      "aur": 2060,
      "ges": 2061,
      "yn": 2062,
      "stant": 2063,
      "tour": 2064,
      "forces": 2065,
      "2012": 2066,
      "County": 2067,
      "22": 2068,
      "uc": 2069,
      "vo": 2070,
      "vent": 2071,
      "every": 2072,
      "Carey": 2073,
      "Mag": 2074,
      "ience": 2075,
      "itch": 2076,
      "direct": 2077,
      "40": 2078,
      "eight": 2079,
      "ior": 2080,
      "ably": 2081,
      "illa": 2082,
      "capt": 2083,
      "Brig": 2084,
      "construction": 2085,
      "James": 2086,
      "SA": 2087,
      "osed": 2088,
      "Church": 2089,
      "lost": 2090,
      "ways": 2091,
      "Febru": 2092,
      "February": 2093,
      "mount": 2094,
      "ution": 2095,
      "look": 2096,
      "Har": 2097,
      "went": 2098,
      "reported": 2099,
      "ael": 2100,
      "total": 2101,
      "decl": 2102,
      "ize": 2103,
      "Mich": 2104,
      "rad": 2105,
      "imp": 2106,
      "mother": 2107,
      "29": 2108,
      "To": 2109,
      "bur": 2110,
      "died": 2111,
      "represent": 2112,
      "orse": 2113,
      "aint": 2114,
      "oung": 2115,
      "comb": 2116,
      "Inter": 2117,
      "developed": 2118,
      "returned": 2119,
      "Bar": 2120,
      "Gal": 2121,
      "face": 2122,
      "word": 2123,
      "sure": 2124,
      "performed": 2125,
      "guns": 2126,
      "Cent": 2127,
      "mm": 2128,
      "ald": 2129,
      "graph": 2130,
      "hip": 2131,
      "test": 2132,
      "noted": 2133,
      "Oldham": 2134,
      "Act": 2135,
      "erc": 2136,
      "moder": 2137,
      "itions": 2138,
      "disc": 2139,
      "Ed": 2140,
      "marri": 2141,
      "Music": 2142,
      "aul": 2143,
      "bas": 2144,
      "never": 2145,
      "ception": 2146,
      "miles": 2147,
      "Dav": 2148,
      "ps": 2149,
      "Cup": 2150,
      "Wheel": 2151,
      "You": 2152,
      "ls": 2153,
      "indu": 2154,
      "rew": 2155,
      "agre": 2156,
      "Reg": 2157,
      "clear": 2158,
      "ploy": 2159,
      "players": 2160,
      "bor": 2161,
      "great": 2162,
      "ances": 2163,
      "aren": 2164,
      "gram": 2165,
      "Guitar": 2166,
      "omen": 2167,
      "ither": 2168,
      "raised": 2169,
      "ampion": 2170,
      "White": 2171,
      "ief": 2172,
      "throughout": 2173,
      "ising": 2174,
      "rock": 2175,
      "himself": 2176,
      "various": 2177,
      "BC": 2178,
      "search": 2179,
      "beh": 2180,
      "2004": 2181,
      "good": 2182,
      "ike": 2183,
      "island": 2184,
      "black": 2185,
      "range": 2186,
      "Wheeler": 2187,
      "felt": 2188,
      "ues": 2189,
      "reen": 2190,
      "debut": 2191,
      "coming": 2192,
      "bus": 2193,
      "di": 2194,
      "pur": 2195,
      "suf": 2196,
      "iving": 2197,
      "announ": 2198,
      "Bra": 2199,
      "wall": 2200,
      "ctions": 2201,
      "ficult": 2202,
      "sound": 2203,
      "vict": 2204,
      "aly": 2205,
      "reek": 2206,
      "High": 2207,
      "lay": 2208,
      "occur": 2209,
      "ivil": 2210,
      "gether": 2211,
      "activ": 2212,
      "vi": 2213,
      "difficult": 2214,
      "William": 2215,
      "born": 2216,
      "thedr": 2217,
      "apan": 2218,
      "Ber": 2219,
      "Sw": 2220,
      "dri": 2221,
      "idence": 2222,
      "earli": 2223,
      "Ang": 2224,
      "full": 2225,
      "damage": 2226,
      "human": 2227,
      "Min": 2228,
      "ering": 2229,
      "ene": 2230,
      "created": 2231,
      "promot": 2232,
      "Ir": 2233,
      "lines": 2234,
      "nal": 2235,
      "stat": 2236,
      "appoint": 2237,
      "intro": 2238,
      "remained": 2239,
      "Geor": 2240,
      "front": 2241,
      "Bill": 2242,
      "Ma": 2243,
      "Rac": 2244,
      "aud": 2245,
      "cil": 2246,
      "cup": 2247,
      "alk": 2248,
      "190": 2249,
      "peak": 2250,
      "aff": 2251,
      "writing": 2252,
      "typ": 2253,
      "population": 2254,
      "Cor": 2255,
      "ison": 2256,
      "rent": 2257,
      "These": 2258,
      "caused": 2259,
      "signific": 2260,
      "Love": 2261,
      "alter": 2262,
      "ago": 2263,
      "should": 2264,
      "need": 2265,
      "2005": 2266,
      "feet": 2267,
      "important": 2268,
      "East": 2269,
      "Japan": 2270,
      "iness": 2271,
      "ots": 2272,
      "fig": 2273,
      "sum": 2274,
      "ones": 2275,
      "While": 2276,
      "fem": 2277,
      "ox": 2278,
      "exp": 2279,
      "battle": 2280,
      "cru": 2281,
      "across": 2282,
      "rick": 2283,
      "interest": 2284,
      "Royal": 2285,
      "television": 2286,
      "thedral": 2287,
      "Rock": 2288,
      "da": 2289,
      "unk": 2290,
      "arded": 2291,
      "profess": 2292,
      "aver": 2293,
      "tropical": 2294,
      "alth": 2295,
      "General": 2296,
      "60": 2297,
      "Hist": 2298,
      "Port": 2299,
      "Rich": 2300,
      "aign": 2301,
      "dou": 2302,
      "too": 2303,
      "prim": 2304,
      "Australia": 2305,
      "see": 2306,
      "ublic": 2307,
      "surv": 2308,
      "stein": 2309,
      "started": 2310,
      "cir": 2311,
      "omet": 2312,
      "cell": 2313,
      "playing": 2314,
      "Egy": 2315,
      "xim": 2316,
      "enon": 2317,
      "white": 2318,
      "anna": 2319,
      "Kingdom": 2320,
      "Fin": 2321,
      "taken": 2322,
      "enced": 2323,
      "ival": 2324,
      "2003": 2325,
      "appeared": 2326,
      "others": 2327,
      "performance": 2328,
      "tradition": 2329,
      "iers": 2330,
      "pec": 2331,
      "key": 2332,
      "aircraft": 2333,
      "live": 2334,
      "lished": 2335,
      "entire": 2336,
      "covered": 2337,
      "control": 2338,
      "mission": 2339,
      "quadron": 2340,
      "mor": 2341,
      "voc": 2342,
      "ories": 2343,
      "least": 2344,
      "acy": 2345,
      "thought": 2346,
      "ample": 2347,
      "introdu": 2348,
      "Po": 2349,
      "Comp": 2350,
      "cert": 2351,
      "break": 2352,
      "change": 2353,
      "River": 2354,
      "trave": 2355,
      "study": 2356,
      "Irish": 2357,
      "Egypt": 2358,
      "fav": 2359,
      "ler": 2360,
      "pair": 2361,
      "ination": 2362,
      "ades": 2363,
      "ung": 2364,
      "estim": 2365,
      "elect": 2366,
      "added": 2367,
      "established": 2368,
      "Mary": 2369,
      "cop": 2370,
      "pie": 2371,
      "ille": 2372,
      "chn": 2373,
      "archaeolog": 2374,
      "Rachel": 2375,
      "route": 2376,
      "zy": 2377,
      "room": 2378,
      "isted": 2379,
      "aves": 2380,
      "relation": 2381,
      "completed": 2382,
      "development": 2383,
      "together": 2384,
      "ioned": 2385,
      "bet": 2386,
      "opened": 2387,
      "Robert": 2388,
      "Fir": 2389,
      "ring": 2390,
      "osp": 2391,
      "common": 2392,
      "issue": 2393,
      "van": 2394,
      "yard": 2395,
      "ability": 2396,
      "formation": 2397,
      "189": 2398,
      "ogn": 2399,
      "characters": 2400,
      "far": 2401,
      "ica": 2402,
      "areas": 2403,
      "antic": 2404,
      "finished": 2405,
      "novel": 2406,
      "weeks": 2407,
      "Ab": 2408,
      "Galve": 2409,
      "fight": 2410,
      "asing": 2411,
      "regular": 2412,
      "damaged": 2413,
      "depend": 2414,
      "send": 2415,
      "atops": 2416,
      "experi": 2417,
      "assoc": 2418,
      "rought": 2419,
      "relig": 2420,
      "does": 2421,
      "Cap": 2422,
      "Law": 2423,
      "date": 2424,
      "stone": 2425,
      "els": 2426,
      "techn": 2427,
      "rang": 2428,
      "leading": 2429,
      "campaign": 2430,
      "football": 2431,
      "modern": 2432,
      "significant": 2433,
      "Galveston": 2434,
      "fif": 2435,
      "pat": 2436,
      "inv": 2437,
      "ality": 2438,
      "accept": 2439,
      "sex": 2440,
      "omb": 2441,
      "David": 2442,
      "Batt": 2443,
      "El": 2444,
      "Mad": 2445,
      "ault": 2446,
      "loss": 2447,
      "chap": 2448,
      "recogn": 2449,
      "2015": 2450,
      "ization": 2451,
      "special": 2452,
      "points": 2453,
      "complete": 2454,
      "France": 2455,
      "ked": 2456,
      "sour": 2457,
      "saw": 2458,
      "respect": 2459,
      "Army": 2460,
      "claimed": 2461,
      "possible": 2462,
      "Super": 2463,
      "Med": 2464,
      "ping": 2465,
      "vill": 2466,
      "ama": 2467,
      "amb": 2468,
      "aven": 2469,
      "scored": 2470,
      "2014": 2471,
      "either": 2472,
      "rain": 2473,
      "compet": 2474,
      "meet": 2475,
      "followed": 2476,
      "announced": 2477,
      "My": 2478,
      "stay": 2479,
      "ara": 2480,
      "termin": 2481,
      "emy": 2482,
      "fourth": 2483,
      "graphy": 2484,
      "Rep": 2485,
      "don": 2486,
      "mot": 2487,
      "writer": 2488,
      "America": 2489,
      "gods": 2490,
      "months": 2491,
      "southern": 2492,
      "First": 2493,
      "los": 2494,
      "iting": 2495,
      "heavy": 2496,
      "begin": 2497,
      "tempor": 2498,
      "azine": 2499,
      "35": 2500,
      "Vir": 2501,
      "base": 2502,
      "lin": 2503,
      "conom": 2504,
      "188": 2505,
      "coast": 2506,
      "medi": 2507,
      "goal": 2508,
      "decided": 2509,
      "Michael": 2510,
      "Light": 2511,
      "Mo": 2512,
      "Sun": 2513,
      "TV": 2514,
      "uses": 2515,
      "ishing": 2516,
      "example": 2517,
      "central": 2518,
      "III": 2519,
      "fleet": 2520,
      "San": 2521,
      "grow": 2522,
      "uk": 2523,
      "itive": 2524,
      "tra": 2525,
      "ought": 2526,
      "lands": 2527,
      "Thom": 2528,
      "sett": 2529,
      "Canada": 2530,
      "Pre": 2531,
      "Ver": 2532,
      "har": 2533,
      "hurricane": 2534,
      "nis": 2535,
      "ug": 2536,
      "once": 2537,
      "aper": 2538,
      "grad": 2539,
      "lled": 2540,
      "worked": 2541,
      "flight": 2542,
      "critics": 2543,
      "laun": 2544,
      "Ot": 2545,
      "Red": 2546,
      "host": 2547,
      "ih": 2548,
      "inch": 2549,
      "forced": 2550,
      "employ": 2551,
      "Command": 2552,
      "director": 2553,
      "member": 2554,
      "Two": 2555,
      "manager": 2556,
      "case": 2557,
      "tre": 2558,
      "instead": 2559,
      "ceed": 2560,
      "ports": 2561,
      "works": 2562,
      "coll": 2563,
      "highway": 2564,
      "located": 2565,
      "George": 2566,
      "Hill": 2567,
      "Mac": 2568,
      "Sy": 2569,
      "gold": 2570,
      "rid": 2571,
      "sele": 2572,
      "subsequ": 2573,
      "European": 2574,
      "Cr": 2575,
      "Paul": 2576,
      "Ross": 2577,
      "Song": 2578,
      "iated": 2579,
      "ata": 2580,
      "crew": 2581,
      "indic": 2582,
      "features": 2583,
      "flood": 2584,
      "political": 2585,
      "Am": 2586,
      "broad": 2587,
      "brought": 2588,
      "little": 2589,
      "Britain": 2590,
      "fantry": 2591,
      "Mex": 2592,
      "Wil": 2593,
      "ks": 2594,
      "nd": 2595,
      "hest": 2596,
      "iron": 2597,
      "ids": 2598,
      "cret": 2599,
      "provided": 2600,
      "Christian": 2601,
      "Australian": 2602,
      "Canadian": 2603,
      "Polish": 2604,
      "31": 2605,
      "Gl": 2606,
      "Not": 2607,
      "ding": 2608,
      "ials": 2609,
      "ned": 2610,
      "atin": 2611,
      "vest": 2612,
      "term": 2613,
      "concl": 2614,
      "conne": 2615,
      "know": 2616,
      "Play": 2617,
      "cause": 2618,
      "mater": 2619,
      "young": 2620,
      "prob": 2621,
      "ology": 2622,
      "500": 2623,
      "Best": 2624,
      "Jew": 2625,
      "Some": 2626,
      "fly": 2627,
      "mas": 2628,
      "mph": 2629,
      "pon": 2630,
      "wife": 2631,
      "stage": 2632,
      "argu": 2633,
      "sell": 2634,
      "stry": 2635,
      "evidence": 2636,
      "commerc": 2637,
      "anger": 2638,
      "originally": 2639,
      "mium": 2640,
      "70": 2641,
      "Coun": 2642,
      "Mor": 2643,
      "Pri": 2644,
      "Villa": 2645,
      "net": 2646,
      "oto": 2647,
      "itz": 2648,
      "urb": 2649,
      "program": 2650,
      "ney": 2651,
      "ishop": 2652,
      "working": 2653,
      "approach": 2654,
      "eventually": 2655,
      "behind": 2656,
      "ML": 2657,
      "got": 2658,
      "sw": 2659,
      "ze": 2660,
      "mode": 2661,
      "outside": 2662,
      "pract": 2663,
      "script": 2664,
      "lack": 2665,
      "mus": 2666,
      "sem": 2667,
      "chol": 2668,
      "anti": 2669,
      "forms": 2670,
      "general": 2671,
      "certain": 2672,
      "Follow": 2673,
      "Qu": 2674,
      "hous": 2675,
      "ón": 2676,
      "acc": 2677,
      "condu": 2678,
      "upon": 2679,
      "guitar": 2680,
      "useum": 2681,
      "service": 2682,
      "winning": 2683,
      "killed": 2684,
      "Brigade": 2685,
      "36": 2686,
      "cross": 2687,
      "non": 2688,
      "signed": 2689,
      "Pres": 2690,
      "Rev": 2691,
      "Str": 2692,
      "Ze": 2693,
      "ius": 2694,
      "tell": 2695,
      "theast": 2696,
      "ander": 2697,
      "towards": 2698,
      "erson": 2699,
      "igned": 2700,
      "winds": 2701,
      "quarter": 2702,
      "Jer": 2703,
      "Zh": 2704,
      "wanted": 2705,
      "urt": 2706,
      "process": 2707,
      "occup": 2708,
      "exc": 2709,
      "essa": 2710,
      "pred": 2711,
      "spir": 2712,
      "iction": 2713,
      "Atl": 2714,
      "hours": 2715,
      "pan": 2716,
      "reve": 2717,
      "admium": 2718,
      "above": 2719,
      "ivid": 2720,
      "help": 2721,
      "Indian": 2722,
      "particularly": 2723,
      "Following": 2724,
      "aland": 2725,
      "tee": 2726,
      "comment": 2727,
      "proble": 2728,
      "avail": 2729,
      "space": 2730,
      "recording": 2731,
      "allowed": 2732,
      "joined": 2733,
      "troops": 2734,
      "Virgin": 2735,
      "nat": 2736,
      "nar": 2737,
      "uck": 2738,
      "eyer": 2739,
      "Peter": 2740,
      "Day": 2741,
      "gra": 2742,
      "ny": 2743,
      "nine": 2744,
      "phas": 2745,
      "rul": 2746,
      "taking": 2747,
      "contract": 2748,
      "love": 2749,
      "cathedral": 2750,
      "opening": 2751,
      "listed": 2752,
      "respons": 2753,
      "viol": 2754,
      "Bel": 2755,
      "Open": 2756,
      "bill": 2757,
      "sea": 2758,
      "ape": 2759,
      "Somer": 2760,
      "But": 2761,
      "How": 2762,
      "carri": 2763,
      "hab": 2764,
      "deal": 2765,
      "whom": 2766,
      "compl": 2767,
      "2002": 2768,
      "region": 2769,
      "thens": 2770,
      "eastern": 2771,
      "cutive": 2772,
      "saying": 2773,
      "Route": 2774,
      "cing": 2775,
      "dle": 2776,
      "hig": 2777,
      "women": 2778,
      "uments": 2779,
      "plann": 2780,
      "ranch": 2781,
      "elements": 2782,
      "featured": 2783,
      "generally": 2784,
      "suffer": 2785,
      "Braa": 2786,
      "Somerset": 2787,
      "Hen": 2788,
      "Meyer": 2789,
      "dol": 2790,
      "xenon": 2791,
      "era": 2792,
      "quest": 2793,
      "interview": 2794,
      "international": 2795,
      "inese": 2796,
      "estimated": 2797,
      "From": 2798,
      "Hol": 2799,
      "Other": 2800,
      "econom": 2801,
      "beer": 2802,
      "forward": 2803,
      "defe": 2804,
      "Chinese": 2805,
      "largest": 2806,
      "goals": 2807,
      "shows": 2808,
      "ready": 2809,
      "previously": 2810,
      "Phil": 2811,
      "earlier": 2812,
      "highest": 2813,
      "Brown": 2814,
      "ded": 2815,
      "fell": 2816,
      "gg": 2817,
      "ique": 2818,
      "station": 2819,
      "events": 2820,
      "Arch": 2821,
      "Im": 2822,
      "Mark": 2823,
      "hon": 2824,
      "ken": 2825,
      "sen": 2826,
      "ana": 2827,
      "account": 2828,
      "det": 2829,
      "ples": 2830,
      "achie": 2831,
      "mean": 2832,
      "meas": 2833,
      "remains": 2834,
      "inkel": 2835,
      "passed": 2836,
      "Townsend": 2837,
      "appointed": 2838,
      "Republic": 2839,
      "School": 2840,
      "ming": 2841,
      "ses": 2842,
      "vice": 2843,
      "19th": 2844,
      "despite": 2845,
      "athus": 2846,
      "minist": 2847,
      "syn": 2848,
      "langu": 2849,
      "appearance": 2850,
      "designed": 2851,
      "standing": 2852,
      "believed": 2853,
      "involved": 2854,
      "circ": 2855,
      "Otto": 2856,
      "Finkel": 2857,
      "Game": 2858,
      "Nico": 2859,
      "civil": 2860,
      "ention": 2861,
      "separ": 2862,
      "ibility": 2863,
      "cost": 2864,
      "counter": 2865,
      "increased": 2866,
      "victory": 2867,
      "Company": 2868,
      "Finkelstein": 2869,
      "Fore": 2870,
      "House": 2871,
      "Land": 2872,
      "hom": 2873,
      "lot": 2874,
      "mal": 2875,
      "ration": 2876,
      "box": 2877,
      "compan": 2878,
      "individ": 2879,
      "type": 2880,
      "current": 2881,
      "ributed": 2882,
      "female": 2883,
      "Meyerbeer": 2884,
      "Tessa": 2885,
      "UK": 2886,
      "vot": 2887,
      "ators": 2888,
      "ites": 2889,
      "ential": 2890,
      "compos": 2891,
      "parts": 2892,
      "45": 2893,
      "Call": 2894,
      "mis": 2895,
      "mun": 2896,
      "think": 2897,
      "inal": 2898,
      "stop": 2899,
      "almost": 2900,
      "aps": 2901,
      "ronic": 2902,
      "limited": 2903,
      "ampionship": 2904,
      "76": 2905,
      "MS": 2906,
      "Navy": 2907,
      "invest": 2908,
      "esb": 2909,
      "bell": 2910,
      "istic": 2911,
      "exist": 2912,
      "Christmas": 2913,
      "Early": 2914,
      "structure": 2915,
      "Despite": 2916,
      "Thomas": 2917,
      "available": 2918,
      "Braathens": 2919,
      "Ottoman": 2920,
      "Nicole": 2921,
      "Creek": 2922,
      "Ke": 2923,
      "Tru": 2924,
      "hit": 2925,
      "past": 2926,
      "tor": 2927,
      "quick": 2928,
      "bled": 2929,
      "capital": 2930,
      "particip": 2931,
      "International": 2932,
      "business": 2933,
      "Hait": 2934,
      "ba": 2935,
      "gress": 2936,
      "ires": 2937,
      "mass": 2938,
      "inst": 2939,
      "oring": 2940,
      "aled": 2941,
      "league": 2942,
      "training": 2943,
      "ify": 2944,
      "spac": 2945,
      "Assoc": 2946,
      "2nd": 2947,
      "Lord": 2948,
      "bri": 2949,
      "foc": 2950,
      "praised": 2951,
      "ties": 2952,
      "edy": 2953,
      "ington": 2954,
      "coach": 2955,
      "bound": 2956,
      "drop": 2957,
      "pot": 2958,
      "threat": 2959,
      "arts": 2960,
      "lower": 2961,
      "prepar": 2962,
      "forest": 2963,
      "temporary": 2964,
      "commercial": 2965,
      "Card": 2966,
      "Hall": 2967,
      "Jane": 2968,
      "educ": 2969,
      "replaced": 2970,
      "ari": 2971,
      "ulated": 2972,
      "earth": 2973,
      "ends": 2974,
      "rael": 2975,
      "oney": 2976,
      "Northern": 2977,
      "Israel": 2978,
      "India": 2979,
      "Angel": 2980,
      "Foot": 2981,
      "Tom": 2982,
      "Tint": 2983,
      "gas": 2984,
      "olic": 2985,
      "ump": 2986,
      "perform": 2987,
      "actions": 2988,
      "Stud": 2989,
      "Carol": 2990,
      "Road": 2991,
      "Most": 2992,
      "Nesb": 2993,
      "here": 2994,
      "hard": 2995,
      "section": 2996,
      "deli": 2997,
      "impro": 2998,
      "super": 2999,
      "shot": 3000,
      "rail": 3001,
      "assist": 3002,
      "liament": 3003,
      "commiss": 3004,
      "official": 3005,
      "supported": 3006,
      "reviews": 3007,
      "additional": 3008,
      "relationship": 3009,
      "Tintin": 3010,
      "90": 3011,
      "Awards": 3012,
      "Don": 3013,
      "Later": 3014,
      "Mog": 3015,
      "Oda": 3016,
      "Res": 3017,
      "bit": 3018,
      "daugh": 3019,
      "sat": 3020,
      "atory": 3021,
      "pected": 3022,
      "186": 3023,
      "maintain": 3024,
      "Arab": 3025,
      "Scott": 3026,
      "Zhou": 3027,
      "Fey": 3028,
      "God": 3029,
      "Sl": 3030,
      "Sarn": 3031,
      "Times": 3032,
      "lor": 3033,
      "must": 3034,
      "woman": 3035,
      "reason": 3036,
      "stren": 3037,
      "arily": 3038,
      "usually": 3039,
      "ume": 3040,
      "illery": 3041,
      "poor": 3042,
      "object": 3043,
      "remaining": 3044,
      "western": 3045,
      "court": 3046,
      "Billboard": 3047,
      "Nesbitt": 3048,
      "Odaen": 3049,
      "Cath": 3050,
      "Squadron": 3051,
      "ray": 3052,
      "ville": 3053,
      "watch": 3054,
      "ened": 3055,
      "notes": 3056,
      "History": 3057,
      "Mexico": 3058,
      "Odaenathus": 3059,
      "Mal": 3060,
      "Part": 3061,
      "bi": 3062,
      "bed": 3063,
      "bow": 3064,
      "hol": 3065,
      "nomin": 3066,
      "oo": 3067,
      "uel": 3068,
      "anim": 3069,
      "research": 3070,
      "icted": 3071,
      "acqu": 3072,
      "vey": 3073,
      "block": 3074,
      "studio": 3075,
      "operations": 3076,
      "prior": 3077,
      "Battle": 3078,
      "Sarnia": 3079,
      "AA": 3080,
      "Ale": 3081,
      "Great": 3082,
      "Hot": 3083,
      "fru": 3084,
      "hib": 3085,
      "army": 3086,
      "ilities": 3087,
      "northern": 3088,
      "going": 3089,
      "engine": 3090,
      "Perón": 3091,
      "suggested": 3092,
      "magazine": 3093,
      "religious": 3094,
      "streng": 3095,
      "Em": 3096,
      "Of": 3097,
      "Tour": 3098,
      "mult": 3099,
      "inj": 3100,
      "stra": 3101,
      "icated": 3102,
      "iding": 3103,
      "ries": 3104,
      "closed": 3105,
      "ateg": 3106,
      "redu": 3107,
      "specific": 3108,
      "positions": 3109,
      "initially": 3110,
      "Eva": 3111,
      "destroyed": 3112,
      "Zealand": 3113,
      "Mogad": 3114,
      "1st": 3115,
      "bir": 3116,
      "gar": 3117,
      "gent": 3118,
      "sal": 3119,
      "uation": 3120,
      "lyric": 3121,
      "cts": 3122,
      "utes": 3123,
      "ems": 3124,
      "express": 3125,
      "Star": 3126,
      "intens": 3127,
      "whose": 3128,
      "directed": 3129,
      "transfer": 3130,
      "nearly": 3131,
      "smaller": 3132,
      "probably": 3133,
      "Bob": 3134,
      "cadmium": 3135,
      "ga": 3136,
      "pain": 3137,
      "prec": 3138,
      "schol": 3139,
      "thes": 3140,
      "ordered": 3141,
      "Union": 3142,
      "professional": 3143,
      "Many": 3144,
      "spo": 3145,
      "somet": 3146,
      "enty": 3147,
      "immedi": 3148,
      "text": 3149,
      "exam": 3150,
      "odes": 3151,
      "2001": 3152,
      "commit": 3153,
      "Art": 3154,
      "ovic": 3155,
      "turned": 3156,
      "mixed": 3157,
      "village": 3158,
      "Dr": 3159,
      "FA": 3160,
      "Fle": 3161,
      "Lo": 3162,
      "give": 3163,
      "nu": 3164,
      "ply": 3165,
      "ti": 3166,
      "zz": 3167,
      "anz": 3168,
      "units": 3169,
      "ctive": 3170,
      "teach": 3171,
      "cycl": 3172,
      "community": 3173,
      "double": 3174,
      "President": 3175,
      "Cra": 3176,
      "Dep": 3177,
      "Gold": 3178,
      "Que": 3179,
      "aut": 3180,
      "oon": 3181,
      "ras": 3182,
      "ita": 3183,
      "dead": 3184,
      "olf": 3185,
      "Innis": 3186,
      "Stre": 3187,
      "187": 3188,
      "soon": 3189,
      "anks": 3190,
      "marked": 3191,
      "Regiment": 3192,
      "Mogadish": 3193,
      "80": 3194,
      "Bro": 3195,
      "Lu": 3196,
      "defin": 3197,
      "rather": 3198,
      "athan": 3199,
      "likely": 3200,
      "Island": 3201,
      "Africa": 3202,
      "voice": 3203,
      "fifth": 3204,
      "dollar": 3205,
      "37": 3206,
      "Ba": 3207,
      "Yue": 3208,
      "batter": 3209,
      "latter": 3210,
      "might": 3211,
      "tion": 3212,
      "whe": 3213,
      "thod": 3214,
      "conc": 3215,
      "arrived": 3216,
      "required": 3217,
      "visit": 3218,
      "asked": 3219,
      "average": 3220,
      "Mogadishu": 3221,
      "bal": 3222,
      "mir": 3223,
      "nation": 3224,
      "rd": 3225,
      "sil": 3226,
      "roll": 3227,
      "amount": 3228,
      "atest": 3229,
      "emer": 3230,
      "ournal": 3231,
      "phys": 3232,
      "ference": 3233,
      "Mont": 3234,
      "Association": 3235,
      "Football": 3236,
      "Cong": 3237,
      "Ham": 3238,
      "Mer": 3239,
      "cal": 3240,
      "gs": 3241,
      "ios": 3242,
      "leng": 3243,
      "ores": 3244,
      "vic": 3245,
      "states": 3246,
      "according": 3247,
      "antim": 3248,
      "contains": 3249,
      "police": 3250,
      "proteins": 3251,
      "social": 3252,
      "establish": 3253,
      "Che": 3254,
      "FE": 3255,
      "Lad": 3256,
      "Met": 3257,
      "Miam": 3258,
      "Oly": 3259,
      "Wood": 3260,
      "failed": 3261,
      "mat": 3262,
      "thus": 3263,
      "beat": 3264,
      "uded": 3265,
      "keep": 3266,
      "includes": 3267,
      "1998": 3268,
      "surround": 3269,
      "largely": 3270,
      "schools": 3271,
      "groups": 3272,
      "culture": 3273,
      "married": 3274,
      "introduced": 3275,
      "material": 3276,
      "natural": 3277,
      "Miami": 3278,
      "Olymp": 3279,
      "39": 3280,
      "Os": 3281,
      "Rih": 3282,
      "Sm": 3283,
      "mur": 3284,
      "native": 3285,
      "inated": 3286,
      "aring": 3287,
      "access": 3288,
      "secur": 3289,
      "ulf": 3290,
      "feel": 3291,
      "print": 3292,
      "screen": 3293,
      "minor": 3294,
      "consist": 3295,
      "bridge": 3296,
      "ological": 3297,
      "Jewish": 3298,
      "Virginia": 3299,
      "language": 3300,
      "Rihanna": 3301,
      "Latin": 3302,
      "Sing": 3303,
      "ben": 3304,
      "mic": 3305,
      "tic": 3306,
      "told": 3307,
      "apt": 3308,
      "comes": 3309,
      "ills": 3310,
      "aval": 3311,
      "poet": 3312,
      "fully": 3313,
      "services": 3314,
      "McCall": 3315,
      "Richard": 3316,
      "favor": 3317,
      "birth": 3318,
      "Ty": 3319,
      "Ven": 3320,
      "ns": 3321,
      "treat": 3322,
      "yards": 3323,
      "rian": 3324,
      "appl": 3325,
      "uture": 3326,
      "score": 3327,
      "gue": 3328,
      "office": 3329,
      "Western": 3330,
      "increasing": 3331,
      "Jackson": 3332,
      "agreed": 3333,
      "occurred": 3334,
      "piece": 3335,
      "Henry": 3336,
      "length": 3337,
      "Bow": 3338,
      "Hib": 3339,
      "Ill": 3340,
      "gal": 3341,
      "paren": 3342,
      "rup": 3343,
      "rhy": 3344,
      "slow": 3345,
      "staff": 3346,
      "demon": 3347,
      "defeat": 3348,
      "conv": 3349,
      "proper": 3350,
      "nest": 3351,
      "percent": 3352,
      "2000": 3353,
      "1995": 3354,
      "ification": 3355,
      "operation": 3356,
      "protein": 3357,
      "buildings": 3358,
      "respond": 3359,
      "lyrics": 3360,
      "Bey": 3361,
      "Horse": 3362,
      "Li": 3363,
      "Sim": 3364,
      "hop": 3365,
      "lie": 3366,
      "ream": 3367,
      "orial": 3368,
      "espec": 3369,
      "cele": 3370,
      "usion": 3371,
      "awarded": 3372,
      "Record": 3373,
      "advant": 3374,
      "stitute": 3375,
      "changed": 3376,
      "SAFE": 3377,
      "cruis": 3378,
      "Council": 3379,
      "especially": 3380,
      "Oper": 3381,
      "Soc": 3382,
      "pay": 3383,
      "uals": 3384,
      "isions": 3385,
      "itself": 3386,
      "exe": 3387,
      "transport": 3388,
      "market": 3389,
      "better": 3390,
      "Street": 3391,
      "Bal": 3392,
      "Camp": 3393,
      "Wales": 3394,
      "Year": 3395,
      "bot": 3396,
      "doc": 3397,
      "mach": 3398,
      "ners": 3399,
      "rate": 3400,
      "heav": 3401,
      "deep": 3402,
      "aker": 3403,
      "active": 3404,
      "ously": 3405,
      "itect": 3406,
      "1996": 3407,
      "election": 3408,
      "Acad": 3409,
      "castle": 3410,
      "launched": 3411,
      "Film": 3412,
      "Ter": 3413,
      "already": 3414,
      "ication": 3415,
      "olk": 3416,
      "aily": 3417,
      "feature": 3418,
      "beginning": 3419,
      "musical": 3420,
      "Bay": 3421,
      "Xe": 3422,
      "bon": 3423,
      "race": 3424,
      "ederal": 3425,
      "enough": 3426,
      "ican": 3427,
      "adop": 3428,
      "lys": 3429,
      "occas": 3430,
      "20th": 3431,
      "pose": 3432,
      "spent": 3433,
      "related": 3434,
      "priv": 3435,
      "Prince": 3436,
      "Charles": 3437,
      "subsequently": 3438,
      "Sal": 3439,
      "Since": 3440,
      "sets": 3441,
      "territ": 3442,
      "artillery": 3443,
      "ranked": 3444,
      "Under": 3445,
      "venue": 3446,
      "Constant": 3447,
      "Second": 3448,
      "prevent": 3449,
      "books": 3450,
      "Colum": 3451,
      "changes": 3452,
      "radio": 3453,
      "discuss": 3454,
      "summer": 3455,
      "dependent": 3456,
      "defeated": 3457,
      "33": 3458,
      "Ap": 3459,
      "BA": 3460,
      "Dan": 3461,
      "Penn": 3462,
      "Saint": 3463,
      "sess": 3464,
      "wick": 3465,
      "onse": 3466,
      "esh": 3467,
      "itation": 3468,
      "learn": 3469,
      "emb": 3470,
      "iva": 3471,
      "scene": 3472,
      "2016": 3473,
      "That": 3474,
      "subject": 3475,
      "Brad": 3476,
      "Mounted": 3477,
      "excav": 3478,
      "Night": 3479,
      "Over": 3480,
      "bad": 3481,
      "coup": 3482,
      "nel": 3483,
      "rum": 3484,
      "eratops": 3485,
      "resid": 3486,
      "artment": 3487,
      "overall": 3488,
      "assigned": 3489,
      "positive": 3490,
      "advance": 3491,
      "peaked": 3492,
      "Atlantic": 3493,
      "sometimes": 3494,
      "GA": 3495,
      "cm": 3496,
      "ds": 3497,
      "money": 3498,
      "pil": 3499,
      "pick": 3500,
      "size": 3501,
      "edar": 3502,
      "enj": 3503,
      "aries": 3504,
      "moving": 3505,
      "quare": 3506,
      "185": 3507,
      "mostly": 3508,
      "location": 3509,
      "critical": 3510,
      "metres": 3511,
      "response": 3512,
      "Earth": 3513,
      "Service": 3514,
      "traditional": 3515,
      "conducted": 3516,
      "daughter": 3517,
      "Catholic": 3518,
      "murder": 3519,
      "Hu": 3520,
      "Pat": 3521,
      "fail": 3522,
      "gir": 3523,
      "makes": 3524,
      "sport": 3525,
      "ert": 3526,
      "aters": 3527,
      "andid": 3528,
      "becoming": 3529,
      "contr": 3530,
      "grass": 3531,
      "pring": 3532,
      "serious": 3533,
      "scen": 3534,
      "observ": 3535,
      "media": 3536,
      "decision": 3537,
      "carried": 3538,
      "Forest": 3539,
      "whether": 3540,
      "44": 3541,
      "6th": 3542,
      "Award": 3543,
      "Cast": 3544,
      "Hum": 3545,
      "Tre": 3546,
      "Tex": 3547,
      "administ": 3548,
      "conf": 3549,
      "concert": 3550,
      "trade": 3551,
      "osaur": 3552,
      "prison": 3553,
      "rict": 3554,
      "1999": 3555,
      "minutes": 3556,
      "jected": 3557,
      "helped": 3558,
      "Club": 3559,
      "constructed": 3560,
      "borough": 3561,
      "brief": 3562,
      "concern": 3563,
      "5th": 3564,
      "Boy": 3565,
      "Little": 3566,
      "cred": 3567,
      "sched": 3568,
      "unable": 3569,
      "conse": 3570,
      "worth": 3571,
      "Ital": 3572,
      "larger": 3573,
      "students": 3574,
      "continue": 3575,
      "provide": 3576,
      "approxim": 3577,
      "stitut": 3578,
      "equip": 3579,
      "mitted": 3580,
      "primary": 3581,
      "Illino": 3582,
      "32": 3583,
      "300": 3584,
      "Long": 3585,
      "Like": 3586,
      "Russ": 3587,
      "bury": 3588,
      "division": 3589,
      "hair": 3590,
      "names": 3591,
      "wing": 3592,
      "iny": 3593,
      "theme": 3594,
      "eding": 3595,
      "always": 3596,
      "escap": 3597,
      "icago": 3598,
      "vert": 3599,
      "exper": 3600,
      "assault": 3601,
      "blue": 3602,
      "photo": 3603,
      "minute": 3604,
      "officers": 3605,
      "ski": 3606,
      "greatest": 3607,
      "performances": 3608,
      "houses": 3609,
      "problems": 3610,
      "antimony": 3611,
      "49": 3612,
      "Jup": 3613,
      "Kore": 3614,
      "bs": 3615,
      "big": 3616,
      "corn": 3617,
      "fa": 3618,
      "future": 3619,
      "liter": 3620,
      "anced": 3621,
      "aging": 3622,
      "abs": 3623,
      "expected": 3624,
      "ounds": 3625,
      "Chicago": 3626,
      "affe": 3627,
      "spired": 3628,
      "famil": 3629,
      "pression": 3630,
      "request": 3631,
      "captured": 3632,
      "copies": 3633,
      "Fleet": 3634,
      "Crit": 3635,
      "Er": 3636,
      "Ho": 3637,
      "Jim": 3638,
      "Mid": 3639,
      "Nathan": 3640,
      "Tran": 3641,
      "job": 3642,
      "anal": 3643,
      "tourn": 3644,
      "depart": 3645,
      "deities": 3646,
      "image": 3647,
      "usband": 3648,
      "ett": 3649,
      "alled": 3650,
      "istics": 3651,
      "shown": 3652,
      "idea": 3653,
      "centre": 3654,
      "Through": 3655,
      "1993": 3656,
      "struck": 3657,
      "writers": 3658,
      "Juan": 3659,
      "titles": 3660,
      "oviet": 3661,
      "Colle": 3662,
      "personal": 3663,
      "brother": 3664,
      "attempted": 3665,
      "matches": 3666,
      "referred": 3667,
      "marriage": 3668,
      "Texas": 3669,
      "38": 3670,
      "Bir": 3671,
      "Lock": 3672,
      "SR": 3673,
      "Sur": 3674,
      "Soviet": 3675,
      "bomb": 3676,
      "dated": 3677,
      "iant": 3678,
      "leaving": 3679,
      "ultim": 3680,
      "intended": 3681,
      "meant": 3682,
      "president": 3683,
      "Argent": 3684,
      "sons": 3685,
      "1994": 3686,
      "selves": 3687,
      "atively": 3688,
      "Sea": 3689,
      "window": 3690,
      "fighting": 3691,
      "quickly": 3692,
      "celebr": 3693,
      "Ali": 3694,
      "Go": 3695,
      "cé": 3696,
      "male": 3697,
      "via": 3698,
      "erous": 3699,
      "entered": 3700,
      "plans": 3701,
      "proposed": 3702,
      "bles": 3703,
      "load": 3704,
      "Another": 3705,
      "create": 3706,
      "albums": 3707,
      "surface": 3708,
      "Shiva": 3709,
      "teams": 3710,
      "Andrew": 3711,
      "friends": 3712,
      "Highway": 3713,
      "Japanese": 3714,
      "source": 3715,
      "Alex": 3716,
      "Jupiter": 3717,
      "Fort": 3718,
      "Haven": 3719,
      "HMS": 3720,
      "hour": 3721,
      "lif": 3722,
      "living": 3723,
      "nes": 3724,
      "pun": 3725,
      "infantry": 3726,
      "isation": 3727,
      "sey": 3728,
      "irt": 3729,
      "Championship": 3730,
      "rance": 3731,
      "architect": 3732,
      "records": 3733,
      "itting": 3734,
      "giving": 3735,
      "directly": 3736,
      "figure": 3737,
      "Bur": 3738,
      "Cour": 3739,
      "Hal": 3740,
      "Nations": 3741,
      "Sam": 3742,
      "Tenn": 3743,
      "Val": 3744,
      "bid": 3745,
      "bishop": 3746,
      "frequ": 3747,
      "horse": 3748,
      "nia": 3749,
      "withdraw": 3750,
      "necess": 3751,
      "odies": 3752,
      "quake": 3753,
      "overnor": 3754,
      "scoring": 3755,
      "temper": 3756,
      "themselves": 3757,
      "films": 3758,
      "issues": 3759,
      "Evita": 3760,
      "habit": 3761,
      "advantage": 3762,
      "Emp": 3763,
      "Green": 3764,
      "fans": 3765,
      "ho": 3766,
      "link": 3767,
      "enter": 3768,
      "forts": 3769,
      "actor": 3770,
      "plays": 3771,
      "recover": 3772,
      "financ": 3773,
      "discovered": 3774,
      "Enter": 3775,
      "bring": 3776,
      "Frank": 3777,
      "join": 3778,
      "Scotland": 3779,
      "rapid": 3780,
      "Sto": 3781,
      "Sch": 3782,
      "fill": 3783,
      "gain": 3784,
      "hosp": 3785,
      "mig": 3786,
      "pow": 3787,
      "purch": 3788,
      "sus": 3789,
      "slight": 3790,
      "orm": 3791,
      "ency": 3792,
      "health": 3793,
      "ado": 3794,
      "determin": 3795,
      "ria": 3796,
      "shire": 3797,
      "rane": 3798,
      "1997": 3799,
      "1986": 3800,
      "incor": 3801,
      "standard": 3802,
      "Palest": 3803,
      "Just": 3804,
      "Vict": 3805,
      "jud": 3806,
      "mes": 3807,
      "oid": 3808,
      "paper": 3809,
      "rac": 3810,
      "inspired": 3811,
      "attract": 3812,
      "orus": 3813,
      "oft": 3814,
      "deb": 3815,
      "neut": 3816,
      "composed": 3817,
      "whole": 3818,
      "offered": 3819,
      "finally": 3820,
      "pressure": 3821,
      "mond": 3822,
      "metal": 3823,
      "allowing": 3824,
      "increase": 3825,
      "tracks": 3826,
      "Illinois": 3827,
      "Bet": 3828,
      "Back": 3829,
      "Gw": 3830,
      "Mil": 3831,
      "Mart": 3832,
      "cu": 3833,
      "cul": 3834,
      "done": 3835,
      "husband": 3836,
      "lvan": 3837,
      "ni": 3838,
      "takes": 3839,
      "things": 3840,
      "thick": 3841,
      "rev": 3842,
      "refle": 3843,
      "andon": 3844,
      "touch": 3845,
      "ils": 3846,
      "bey": 3847,
      "ulpt": 3848,
      "shoot": 3849,
      "illo": 3850,
      "managed": 3851,
      "compared": 3852,
      "center": 3853,
      "phen": 3854,
      "flank": 3855,
      "relief": 3856,
      "appearances": 3857,
      "sixth": 3858,
      "freeway": 3859,
      "influence": 3860,
      "losing": 3861,
      "broadcast": 3862,
      "planned": 3863,
      "Crazy": 3864,
      "approximately": 3865,
      "Empire": 3866,
      "Bu": 3867,
      "Out": 3868,
      "mouth": 3869,
      "uter": 3870,
      "wound": 3871,
      "instr": 3872,
      "ergy": 3873,
      "onto": 3874,
      "cting": 3875,
      "ula": 3876,
      "tray": 3877,
      "artist": 3878,
      "anta": 3879,
      "Chap": 3880,
      "Its": 3881,
      "speed": 3882,
      "sylvan": 3883,
      "featuring": 3884,
      "vocal": 3885,
      "vocals": 3886,
      "Egyptian": 3887,
      "investig": 3888,
      "education": 3889,
      "48": 3890,
      "Museum": 3891,
      "NH": 3892,
      "Prote": 3893,
      "Simp": 3894,
      "dark": 3895,
      "kin": 3896,
      "lb": 3897,
      "inent": 3898,
      "oncé": 3899,
      "asy": 3900,
      "longer": 3901,
      "opera": 3902,
      "tower": 3903,
      "chem": 3904,
      "defend": 3905,
      "course": 3906,
      "Span": 3907,
      "undred": 3908,
      "target": 3909,
      "activities": 3910,
      "respectively": 3911,
      "Beyoncé": 3912,
      "3rd": 3913,
      "75": 3914,
      "Ele": 3915,
      "Government": 3916,
      "aer": 3917,
      "hic": 3918,
      "viron": 3919,
      "reme": 3920,
      "tom": 3921,
      "tomb": 3922,
      "sec": 3923,
      "omer": 3924,
      "suit": 3925,
      "progress": 3926,
      "artists": 3927,
      "China": 3928,
      "sculpt": 3929,
      "producer": 3930,
      "highly": 3931,
      "Mario": 3932,
      "complex": 3933,
      "Clark": 3934,
      "controvers": 3935,
      "powerful": 3936,
      "rison": 3937,
      "experience": 3938,
      "commented": 3939,
      "suffered": 3940,
      "Academy": 3941,
      "Victor": 3942,
      "Dire": 3943,
      "SP": 3944,
      "Ulys": 3945,
      "bio": 3946,
      "cake": 3947,
      "hot": 3948,
      "iro": 3949,
      "lic": 3950,
      "mel": 3951,
      "saf": 3952,
      "sister": 3953,
      "alty": 3954,
      "agon": 3955,
      "neg": 3956,
      "twenty": 3957,
      "grand": 3958,
      "portun": 3959,
      "pool": 3960,
      "pret": 3961,
      "seasons": 3962,
      "sole": 3963,
      "pedo": 3964,
      "studies": 3965,
      "legal": 3966,
      "defence": 3967,
      "consider": 3968,
      "majority": 3969,
      "initial": 3970,
      "aught": 3971,
      "associated": 3972,
      "competition": 3973,
      "revealed": 3974,
      "meaning": 3975,
      "Ulysses": 3976,
      "96": 3977,
      "Gard": 3978,
      "Pac": 3979,
      "Pop": 3980,
      "Tri": 3981,
      "Wel": 3982,
      "food": 3983,
      "rat": 3984,
      "want": 3985,
      "cean": 3986,
      "except": 3987,
      "ipal": 3988,
      "weap": 3989,
      "write": 3990,
      "tons": 3991,
      "Germany": 3992,
      "arms": 3993,
      "Parliament": 3994,
      "quarters": 3995,
      "soldiers": 3996,
      "Central": 3997,
      "types": 3998,
      "Italian": 3999,
      "34": 4000,
      "94": 4001,
      "AML": 4002,
      "Bas": 4003,
      "Ca": 4004,
      "Del": 4005,
      "Friend": 4006,
      "If": 4007,
      "NC": 4008,
      "Post": 4009,
      "Sever": 4010,
      "Tele": 4011,
      "fre": 4012,
      "nature": 4013,
      "rical": 4014,
      "yet": 4015,
      "leave": 4016,
      "chall": 4017,
      "below": 4018,
      "confl": 4019,
      "aret": 4020,
      "scient": 4021,
      "1991": 4022,
      "colon": 4023,
      "Leod": 4024,
      "distin": 4025,
      "possess": 4026,
      "commander": 4027,
      "ribution": 4028,
      "status": 4029,
      "collabor": 4030,
      "MacLeod": 4031,
      "torpedo": 4032,
      "Scottish": 4033,
      "Are": 4034,
      "Hurricane": 4035,
      "Jes": 4036,
      "Sou": 4037,
      "burn": 4038,
      "kind": 4039,
      "patter": 4040,
      "rare": 4041,
      "ws": 4042,
      "edge": 4043,
      "rect": 4044,
      "ands": 4045,
      "contemporary": 4046,
      "opportun": 4047,
      "discover": 4048,
      "ails": 4049,
      "conditions": 4050,
      "1992": 4051,
      "singer": 4052,
      "captain": 4053,
      "episodes": 4054,
      "chester": 4055,
      "presented": 4056,
      "Because": 4057,
      "issued": 4058,
      "effects": 4059,
      "African": 4060,
      "refused": 4061,
      "impact": 4062,
      "responsible": 4063,
      "immediately": 4064,
      "Department": 4065,
      "Hibari": 4066,
      "parents": 4067,
      "Pennsylvan": 4068,
      "Spanish": 4069,
      "Fam": 4070,
      "NBA": 4071,
      "Qedar": 4072,
      "Tor": 4073,
      "Tim": 4074,
      "dition": 4075,
      "drew": 4076,
      "fit": 4077,
      "pul": 4078,
      "rout": 4079,
      "sales": 4080,
      "step": 4081,
      "ises": 4082,
      "oud": 4083,
      "agan": 4084,
      "abandon": 4085,
      "raid": 4086,
      "iple": 4087,
      "Chris": 4088,
      "granted": 4089,
      "Stan": 4090,
      "Station": 4091,
      "strugg": 4092,
      "inside": 4093,
      "severe": 4094,
      "alongside": 4095,
      "Romani": 4096,
      "Paris": 4097,
      "Week": 4098,
      "casual": 4099,
      "mounted": 4100,
      "audience": 4101,
      "morning": 4102,
      "flooding": 4103,
      "concluded": 4104,
      "Cardinal": 4105,
      "private": 4106,
      "scenes": 4107,
      "Cre": 4108,
      "Du": 4109,
      "Kr": 4110,
      "Los": 4111,
      "Live": 4112,
      "Mill": 4113,
      "RA": 4114,
      "hundred": 4115,
      "lock": 4116,
      "paid": 4117,
      "wear": 4118,
      "information": 4119,
      "removed": 4120,
      "ening": 4121,
      "verse": 4122,
      "plot": 4123,
      "quality": 4124,
      "owned": 4125,
      "render": 4126,
      "struction": 4127,
      "something": 4128,
      "azz": 4129,
      "leaders": 4130,
      "running": 4131,
      "extended": 4132,
      "society": 4133,
      "Anderson": 4134,
      "frag": 4135,
      "alifor": 4136,
      "levels": 4137,
      "street": 4138,
      "mountain": 4139,
      "industry": 4140,
      "settle": 4141,
      "ceeded": 4142,
      "spacing": 4143,
      "Queen": 4144,
      "Olympic": 4145,
      "enjoy": 4146,
      "incorpor": 4147,
      "La": 4148,
      "So": 4149,
      "bour": 4150,
      "brown": 4151,
      "folk": 4152,
      "kick": 4153,
      "inn": 4154,
      "ero": 4155,
      "edit": 4156,
      "rein": 4157,
      "rear": 4158,
      "entrance": 4159,
      "hero": 4160,
      "poly": 4161,
      "method": 4162,
      "Three": 4163,
      "shell": 4164,
      "higher": 4165,
      "appears": 4166,
      "runs": 4167,
      "attacks": 4168,
      "says": 4169,
      "cultural": 4170,
      "Airport": 4171,
      "Captain": 4172,
      "Haiti": 4173,
      "contrast": 4174,
      "42": 4175,
      "400": 4176,
      "AT": 4177,
      "Off": 4178,
      "Rad": 4179,
      "Sir": 4180,
      "cere": 4181,
      "dyn": 4182,
      "gam": 4183,
      "gins": 4184,
      "jack": 4185,
      "mom": 4186,
      "stars": 4187,
      "ads": 4188,
      "dete": 4189,
      "ift": 4190,
      "extra": 4191,
      "aust": 4192,
      "offer": 4193,
      "Force": 4194,
      "Blue": 4195,
      "draft": 4196,
      "resulted": 4197,
      "countries": 4198,
      "attempts": 4199,
      "needed": 4200,
      "ricket": 4201,
      "inches": 4202,
      "Slam": 4203,
      "fruit": 4204,
      "Records": 4205,
      "Constantine": 4206,
      "affected": 4207,
      "vironment": 4208,
      "Tem": 4209,
      "UN": 4210,
      "cat": 4211,
      "candid": 4212,
      "ha": 4213,
      "jok": 4214,
      "uated": 4215,
      "yl": 4216,
      "reception": 4217,
      "atre": 4218,
      "alion": 4219,
      "altar": 4220,
      "ases": 4221,
      "confir": 4222,
      "concent": 4223,
      "iston": 4224,
      "traf": 4225,
      "iff": 4226,
      "pty": 4227,
      "attention": 4228,
      "party": 4229,
      "numbers": 4230,
      "Def": 4231,
      "Book": 4232,
      "widely": 4233,
      "Truj": 4234,
      "Lady": 4235,
      "600": 4236,
      "Cross": 4237,
      "Califor": 4238,
      "Domin": 4239,
      "Miss": 4240,
      "Pen": 4241,
      "Sb": 4242,
      "Sus": 4243,
      "Up": 4244,
      "Wi": 4245,
      "bat": 4246,
      "master": 4247,
      "pet": 4248,
      "tax": 4249,
      "thers": 4250,
      "repair": 4251,
      "secret": 4252,
      "olution": 4253,
      "terms": 4254,
      "umed": 4255,
      "istry": 4256,
      "mov": 4257,
      "acting": 4258,
      "award": 4259,
      "finals": 4260,
      "newsp": 4261,
      "door": 4262,
      "drum": 4263,
      "polic": 4264,
      "Smith": 4265,
      "heavily": 4266,
      "schedul": 4267,
      "consecutive": 4268,
      "analys": 4269,
      "College": 4270,
      "Pennsylvania": 4271,
      "Trujillo": 4272,
      "Cam": 4273,
      "cers": 4274,
      "fast": 4275,
      "flow": 4276,
      "ging": 4277,
      "han": 4278,
      "kil": 4279,
      "rated": 4280,
      "err": 4281,
      "iled": 4282,
      "demand": 4283,
      "ider": 4284,
      "Indu": 4285,
      "ieval": 4286,
      "izing": 4287,
      "annual": 4288,
      "color": 4289,
      "elected": 4290,
      "Common": 4291,
      "effort": 4292,
      "broken": 4293,
      "teenth": 4294,
      "words": 4295,
      "selected": 4296,
      "practice": 4297,
      "achieved": 4298,
      "commissioned": 4299,
      "strength": 4300,
      "traffic": 4301,
      "Band": 4302,
      "Blo": 4303,
      "Do": 4304,
      "Kil": 4305,
      "Pet": 4306,
      "Rob": 4307,
      "Rio": 4308,
      "Sil": 4309,
      "push": 4310,
      "winter": 4311,
      "stained": 4312,
      "asc": 4313,
      "isl": 4314,
      "ications": 4315,
      "lying": 4316,
      "uries": 4317,
      "delay": 4318,
      "comedy": 4319,
      "peace": 4320,
      "ighth": 4321,
      "preser": 4322,
      "orses": 4323,
      "producers": 4324,
      "efforts": 4325,
      "ceratops": 4326,
      "tainment": 4327,
      "portray": 4328,
      "officially": 4329,
      "Plunk": 4330,
      "greater": 4331,
      "hands": 4332,
      "Center": 4333,
      "Activision": 4334,
      "debuted": 4335,
      "Minister": 4336,
      "figures": 4337,
      "Belg": 4338,
      "Venus": 4339,
      "document": 4340,
      "residents": 4341,
      "slightly": 4342,
      "56": 4343,
      "Aston": 4344,
      "Cold": 4345,
      "Four": 4346,
      "Fred": 4347,
      "Kar": 4348,
      "Mem": 4349,
      "Mass": 4350,
      "Naz": 4351,
      "Ru": 4352,
      "Turn": 4353,
      "Well": 4354,
      "dro": 4355,
      "federal": 4356,
      "sides": 4357,
      "square": 4358,
      "yle": 4359,
      "atives": 4360,
      "Their": 4361,
      "river": 4362,
      "opin": 4363,
      "astic": 4364,
      "qual": 4365,
      "portion": 4366,
      "means": 4367,
      "phy": 4368,
      "singles": 4369,
      "Group": 4370,
      "starting": 4371,
      "attacked": 4372,
      "Franc": 4373,
      "missed": 4374,
      "battles": 4375,
      "middle": 4376,
      "Series": 4377,
      "basis": 4378,
      "activity": 4379,
      "demonstr": 4380,
      "Pacific": 4381,
      "Several": 4382,
      "California": 4383,
      "47": 4384,
      "Bre": 4385,
      "Mur": 4386,
      "Never": 4387,
      "Spec": 4388,
      "gn": 4389,
      "hood": 4390,
      "jun": 4391,
      "park": 4392,
      "really": 4393,
      "aspect": 4394,
      "asters": 4395,
      "perman": 4396,
      "note": 4397,
      "upper": 4398,
      "ellow": 4399,
      "wealth": 4400,
      "workers": 4401,
      "1988": 4402,
      "maxim": 4403,
      "Maria": 4404,
      "nearby": 4405,
      "officer": 4406,
      "officials": 4407,
      "variety": 4408,
      "claims": 4409,
      "Somal": 4410,
      "divided": 4411,
      "sites": 4412,
      "situation": 4413,
      "Corps": 4414,
      "companies": 4415,
      "Society": 4416,
      "Both": 4417,
      "Fur": 4418,
      "Jif": 4419,
      "Key": 4420,
      "NO": 4421,
      "Yank": 4422,
      "ban": 4423,
      "ec": 4424,
      "gé": 4425,
      "labor": 4426,
      "rab": 4427,
      "sand": 4428,
      "armed": 4429,
      "adium": 4430,
      "oppon": 4431,
      "mosp": 4432,
      "mentioned": 4433,
      "earned": 4434,
      "princ": 4435,
      "presence": 4436,
      "creation": 4437,
      "premi": 4438,
      "rug": 4439,
      "1990": 4440,
      "Album": 4441,
      "numerous": 4442,
      "150": 4443,
      "reaching": 4444,
      "sky": 4445,
      "Mean": 4446,
      "planet": 4447,
      "authorities": 4448,
      "influenced": 4449,
      "stream": 4450,
      "declared": 4451,
      "primarily": 4452,
      "accepted": 4453,
      "sexual": 4454,
      "completely": 4455,
      "Review": 4456,
      "narrow": 4457,
      "security": 4458,
      "Bowl": 4459,
      "girl": 4460,
      "equipment": 4461,
      "financial": 4462,
      "wounded": 4463,
      "Francis": 4464,
      "Yankovic": 4465,
      "46": 4466,
      "95": 4467,
      "Dist": 4468,
      "Gre": 4469,
      "Lis": 4470,
      "NA": 4471,
      "Sap": 4472,
      "bird": 4473,
      "dy": 4474,
      "mile": 4475,
      "sense": 4476,
      "waters": 4477,
      "usal": 4478,
      "reser": 4479,
      "mob": 4480,
      "emphas": 4481,
      "excl": 4482,
      "fired": 4483,
      "awa": 4484,
      "ibly": 4485,
      "Jose": 4486,
      "charge": 4487,
      "suppl": 4488,
      "1940": 4489,
      "transit": 4490,
      "stories": 4491,
      "Manchester": 4492,
      "sequence": 4493,
      "solo": 4494,
      "Somali": 4495,
      "successfully": 4496,
      "represented": 4497,
      "combined": 4498,
      "rainfall": 4499,
      "meeting": 4500,
      "flights": 4501,
      "trees": 4502,
      "Keats": 4503,
      "improve": 4504,
      "reduced": 4505,
      "Adam": 4506,
      "Cle": 4507,
      "Dev": 4508,
      "Sara": 4509,
      "Tod": 4510,
      "pitch": 4511,
      "ta": 4512,
      "za": 4513,
      "ont": 4514,
      "atmosp": 4515,
      "vehic": 4516,
      "unit": 4517,
      "prop": 4518,
      "Institute": 4519,
      "ements": 4520,
      "orders": 4521,
      "science": 4522,
      "northeast": 4523,
      "ledge": 4524,
      "identified": 4525,
      "passing": 4526,
      "carry": 4527,
      "extreme": 4528,
      "Admir": 4529,
      "shortly": 4530,
      "initi": 4531,
      "Produ": 4532,
      "Cole": 4533,
      "collection": 4534,
      "seventh": 4535,
      "authority": 4536,
      "Major": 4537,
      "earthquake": 4538,
      "nuclear": 4539,
      "battery": 4540,
      "tournament": 4541,
      "ultimately": 4542,
      "Clarkson": 4543,
      "Welsh": 4544,
      "casualties": 4545,
      "Jifna": 4546,
      "Civil": 4547,
      "Dis": 4548,
      "Games": 4549,
      "Jul": 4550,
      "Mus": 4551,
      "Sum": 4552,
      "Ye": 4553,
      "Young": 4554,
      "crow": 4555,
      "dock": 4556,
      "journal": 4557,
      "ky": 4558,
      "kes": 4559,
      "your": 4560,
      "restor": 4561,
      "enemy": 4562,
      "anded": 4563,
      "toward": 4564,
      "ental": 4565,
      "chair": 4566,
      "chance": 4567,
      "aine": 4568,
      "mole": 4569,
      "boat": 4570,
      "boats": 4571,
      "rule": 4572,
      "End": 4573,
      "regard": 4574,
      "brig": 4575,
      "background": 4576,
      "1944": 4577,
      "places": 4578,
      "extensive": 4579,
      "sentence": 4580,
      "Charlie": 4581,
      "graphic": 4582,
      "Swed": 4583,
      "pieces": 4584,
      "Archaeolog": 4585,
      "prepared": 4586,
      "intensity": 4587,
      "adopted": 4588,
      "ceremon": 4589,
      "Dun": 4590,
      "FI": 4591,
      "Water": 4592,
      "bud": 4593,
      "hor": 4594,
      "lived": 4595,
      "mind": 4596,
      "smo": 4597,
      "thr": 4598,
      "anes": 4599,
      "ato": 4600,
      "leuk": 4601,
      "older": 4602,
      "ety": 4603,
      "resh": 4604,
      "shore": 4605,
      "train": 4606,
      "true": 4607,
      "emic": 4608,
      "estic": 4609,
      "estival": 4610,
      "blood": 4611,
      "Storm": 4612,
      "content": 4613,
      "contain": 4614,
      "charter": 4615,
      "writes": 4616,
      "Leon": 4617,
      "normal": 4618,
      "symb": 4619,
      "doing": 4620,
      "vessel": 4621,
      "county": 4622,
      "holds": 4623,
      "walls": 4624,
      "archaeological": 4625,
      "flying": 4626,
      "argued": 4627,
      "economic": 4628,
      "expressed": 4629,
      "scholar": 4630,
      "families": 4631,
      "Court": 4632,
      "Friends": 4633,
      "87": 4634,
      "Avenue": 4635,
      "Dou": 4636,
      "Gord": 4637,
      "Ly": 4638,
      "Rol": 4639,
      "Time": 4640,
      "Ve": 4641,
      "Var": 4642,
      "farm": 4643,
      "govern": 4644,
      "nur": 4645,
      "nie": 4646,
      "ram": 4647,
      "sail": 4648,
      "wise": 4649,
      "esc": 4650,
      "iced": 4651,
      "seek": 4652,
      "begins": 4653,
      "dem": 4654,
      "unique": 4655,
      "aped": 4656,
      "etts": 4657,
      "utch": 4658,
      "clo": 4659,
      "Infantry": 4660,
      "peror": 4661,
      "boy": 4662,
      "recent": 4663,
      "ween": 4664,
      "spect": 4665,
      "retired": 4666,
      "themes": 4667,
      "1989": 4668,
      "1980s": 4669,
      "hys": 4670,
      "1941": 4671,
      "Marl": 4672,
      "1960s": 4673,
      "visited": 4674,
      "rights": 4675,
      "organized": 4676,
      "ription": 4677,
      "arent": 4678,
      "Histor": 4679,
      "sources": 4680,
      "dedicated": 4681,
      "potential": 4682,
      "deliver": 4683,
      "transferred": 4684,
      "65": 4685,
      "Cal": 4686,
      "Den": 4687,
      "Gir": 4688,
      "Home": 4689,
      "Rif": 4690,
      "Wim": 4691,
      "data": 4692,
      "fish": 4693,
      "lers": 4694,
      "mort": 4695,
      "museum": 4696,
      "pit": 4697,
      "sac": 4698,
      "spring": 4699,
      "environment": 4700,
      "stro": 4701,
      "roles": 4702,
      "igan": 4703,
      "conver": 4704,
      "concept": 4705,
      "umber": 4706,
      "shark": 4707,
      "acts": 4708,
      "180": 4709,
      "guard": 4710,
      "versions": 4711,
      "gency": 4712,
      "singing": 4713,
      "1984": 4714,
      "1985": 4715,
      "founded": 4716,
      "leader": 4717,
      "Hergé": 4718,
      "1970s": 4719,
      "defensive": 4720,
      "describes": 4721,
      "Colon": 4722,
      "storyline": 4723,
      "criticized": 4724,
      "capture": 4725,
      "selling": 4726,
      "Party": 4727,
      "Brook": 4728,
      "silver": 4729,
      "scheduled": 4730,
      "Kilmer": 4731,
      "Saprang": 4732,
      "120": 4733,
      "Kat": 4734,
      "Kent": 4735,
      "Lew": 4736,
      "Six": 4737,
      "TC": 4738,
      "bank": 4739,
      "fear": 4740,
      "glo": 4741,
      "rating": 4742,
      "ufact": 4743,
      "ingale": 4744,
      "rie": 4745,
      "ender": 4746,
      "twice": 4747,
      "atty": 4748,
      "evo": 4749,
      "guest": 4750,
      "rence": 4751,
      "web": 4752,
      "mainly": 4753,
      "obtain": 4754,
      "underground": 4755,
      "relatively": 4756,
      "produce": 4757,
      "Leg": 4758,
      "consisted": 4759,
      "calling": 4760,
      "causing": 4761,
      "protest": 4762,
      "prominent": 4763,
      "publication": 4764,
      "controlled": 4765,
      "explained": 4766,
      "southeast": 4767,
      "structures": 4768,
      "Mountain": 4769,
      "historical": 4770,
      "buried": 4771,
      "promotion": 4772,
      "typically": 4773,
      "Lawton": 4774,
      "separate": 4775,
      "machine": 4776,
      "Holy": 4777,
      "Between": 4778,
      "Background": 4779,
      "analysis": 4780,
      "Hel": 4781,
      "Low": 4782,
      "Pers": 4783,
      "Ul": 4784,
      "Vol": 4785,
      "Vill": 4786,
      "dut": 4787,
      "fict": 4788,
      "fiction": 4789,
      "naval": 4790,
      "pack": 4791,
      "pound": 4792,
      "wild": 4793,
      "thir": 4794,
      "erog": 4795,
      "acad": 4796,
      "cher": 4797,
      "dev": 4798,
      "proved": 4799,
      "clim": 4800,
      "raise": 4801,
      "acted": 4802,
      "loy": 4803,
      "attended": 4804,
      "Though": 4805,
      "annel": 4806,
      "monarch": 4807,
      "1990s": 4808,
      "address": 4809,
      "supporting": 4810,
      "Science": 4811,
      "churches": 4812,
      "movement": 4813,
      "industri": 4814,
      "chapter": 4815,
      "Premi": 4816,
      "Wilde": 4817,
      "occupied": 4818,
      "bledon": 4819,
      "Janeiro": 4820,
      "Studios": 4821,
      "benef": 4822,
      "Wimbledon": 4823,
      "64": 4824,
      "Ben": 4825,
      "Bishop": 4826,
      "CE": 4827,
      "Dest": 4828,
      "Eat": 4829,
      "Far": 4830,
      "Fel": 4831,
      "Hell": 4832,
      "Mat": 4833,
      "ais": 4834,
      "cust": 4835,
      "dress": 4836,
      "dream": 4837,
      "happ": 4838,
      "horses": 4839,
      "ole": 4840,
      "pup": 4841,
      "path": 4842,
      "rich": 4843,
      "squadron": 4844,
      "tur": 4845,
      "tree": 4846,
      "atus": 4847,
      "alone": 4848,
      "ingu": 4849,
      "today": 4850,
      "roof": 4851,
      "ager": 4852,
      "osen": 4853,
      "exhib": 4854,
      "actors": 4855,
      "actress": 4856,
      "actually": 4857,
      "firm": 4858,
      "pton": 4859,
      "attend": 4860,
      "mechan": 4861,
      "weather": 4862,
      "weaken": 4863,
      "angers": 4864,
      "Commission": 4865,
      "highlight": 4866,
      "Conf": 4867,
      "1946": 4868,
      "showed": 4869,
      "famous": 4870,
      "Secret": 4871,
      "legisl": 4872,
      "defense": 4873,
      "tried": 4874,
      "missions": 4875,
      "1939": 4876,
      "Andy": 4877,
      "grew": 4878,
      "asket": 4879,
      "facilities": 4880,
      "floor": 4881,
      "earliest": 4882,
      "homes": 4883,
      "couple": 4884,
      "osaurus": 4885,
      "determined": 4886,
      "Gordon": 4887,
      "53": 4888,
      "54": 4889,
      "8th": 4890,
      "Bell": 4891,
      "Bru": 4892,
      "Bull": 4893,
      "Ha": 4894,
      "Nich": 4895,
      "ahead": 4896,
      "fix": 4897,
      "gro": 4898,
      "jevo": 4899,
      "oil": 4900,
      "paint": 4901,
      "swe": 4902,
      "ustr": 4903,
      "uzz": 4904,
      "vens": 4905,
      "wed": 4906,
      "stating": 4907,
      "semi": 4908,
      "ura": 4909,
      "ols": 4910,
      "artic": 4911,
      "ockey": 4912,
      "herself": 4913,
      "Chronic": 4914,
      "elli": 4915,
      "serve": 4916,
      "Italy": 4917,
      "ublin": 4918,
      "observed": 4919,
      "cannot": 4920,
      "Only": 4921,
      "Commit": 4922,
      "submar": 4923,
      "Conference": 4924,
      "decor": 4925,
      "engaged": 4926,
      "direction": 4927,
      "roads": 4928,
      "advanced": 4929,
      "domestic": 4930,
      "camps": 4931,
      "believe": 4932,
      "apparent": 4933,
      "Philip": 4934,
      "measure": 4935,
      "individual": 4936,
      "territory": 4937,
      "necessary": 4938,
      "Plunketts": 4939,
      "Sarajevo": 4940,
      "budget": 4941,
      "Pope": 4942,
      "Ram": 4943,
      "Row": 4944,
      "Video": 4945,
      "bb": 4946,
      "youn": 4947,
      "inner": 4948,
      "reaction": 4949,
      "ena": 4950,
      "stock": 4951,
      "ionally": 4952,
      "heart": 4953,
      "plant": 4954,
      "uten": 4955,
      "mod": 4956,
      "neigh": 4957,
      "manufact": 4958,
      "ordin": 4959,
      "Chart": 4960,
      "prise": 4961,
      "log": 4962,
      "offensive": 4963,
      "newly": 4964,
      "follows": 4965,
      "viewers": 4966,
      "1942": 4967,
      "1947": 4968,
      "stones": 4969,
      "council": 4970,
      "fields": 4971,
      "Class": 4972,
      "function": 4973,
      "require": 4974,
      "label": 4975,
      "Addition": 4976,
      "plement": 4977,
      "broke": 4978,
      "apping": 4979,
      "Palmy": 4980,
      "combat": 4981,
      "experienced": 4982,
      "connected": 4983,
      "Jerusal": 4984,
      "individuals": 4985,
      "participated": 4986,
      "Angeles": 4987,
      "Carolina": 4988,
      "straight": 4989,
      "committee": 4990,
      "Joseph": 4991,
      "Marlborough": 4992,
      "fictional": 4993,
      "Jerusalem": 4994,
      "Av": 4995,
      "Bond": 4996,
      "Dublin": 4997,
      "Gall": 4998,
      "Haw": 4999,
      "More": 5000,
      "Sub": 5001,
      "WA": 5002,
      "cities": 5003,
      "gie": 5004,
      "ka": 5005,
      "ror": 5006,
      "ini": 5007,
      "amber": 5008,
      "chief": 5009,
      "depression": 5010,
      "plum": 5011,
      "clos": 5012,
      "aks": 5013,
      "Stone": 5014,
      "monument": 5015,
      "Real": 5016,
      "Gerard": 5017,
      "value": 5018,
      "domin": 5019,
      "letter": 5020,
      "royal": 5021,
      "reference": 5022,
      "projects": 5023,
      "looking": 5024,
      "cells": 5025,
      "chapel": 5026,
      "graf": 5027,
      "billion": 5028,
      "hospital": 5029,
      "Further": 5030,
      "erogative": 5031,
      "Dam": 5032,
      "Fl": 5033,
      "Fant": 5034,
      "Jud": 5035,
      "Lake": 5036,
      "OT": 5037,
      "Wic": 5038,
      "cot": 5039,
      "iate": 5040,
      "inscript": 5041,
      "ono": 5042,
      "recomm": 5043,
      "replac": 5044,
      "alle": 5045,
      "hem": 5046,
      "chose": 5047,
      "unknown": 5048,
      "convent": 5049,
      "usad": 5050,
      "1920": 5051,
      "sustained": 5052,
      "berg": 5053,
      "udd": 5054,
      "ranged": 5055,
      "containing": 5056,
      "Aniston": 5057,
      "disp": 5058,
      "foreign": 5059,
      "colum": 5060,
      "distance": 5061,
      "Mega": 5062,
      "Spain": 5063,
      "faced": 5064,
      "Coast": 5065,
      "historic": 5066,
      "Edward": 5067,
      "layer": 5068,
      "losses": 5069,
      "growth": 5070,
      "surrounding": 5071,
      "Director": 5072,
      "conflict": 5073,
      "abandoned": 5074,
      "maximum": 5075,
      "Somalia": 5076,
      "98": 5077,
      "Dar": 5078,
      "Down": 5079,
      "Good": 5080,
      "Je": 5081,
      "Lar": 5082,
      "Max": 5083,
      "Master": 5084,
      "ares": 5085,
      "bes": 5086,
      "bodies": 5087,
      "cam": 5088,
      "eth": 5089,
      "fair": 5090,
      "hap": 5091,
      "ker": 5092,
      "mut": 5093,
      "spl": 5094,
      "tack": 5095,
      "thous": 5096,
      "inth": 5097,
      "inals": 5098,
      "reign": 5099,
      "atom": 5100,
      "alleg": 5101,
      "height": 5102,
      "advert": 5103,
      "chosen": 5104,
      "images": 5105,
      "else": 5106,
      "plat": 5107,
      "tran": 5108,
      "iano": 5109,
      "Child": 5110,
      "scar": 5111,
      "scale": 5112,
      "ultural": 5113,
      "weak": 5114,
      "oys": 5115,
      "Demo": 5116,
      "cki": 5117,
      "publish": 5118,
      "Short": 5119,
      "foundation": 5120,
      "gives": 5121,
      "Stevens": 5122,
      "management": 5123,
      "pursu": 5124,
      "suffic": 5125,
      "promoted": 5126,
      "thesis": 5127,
      "Oslo": 5128,
      "micro": 5129,
      "Russian": 5130,
      "asketball": 5131,
      "Furt": 5132,
      "Hosp": 5133,
      "Lin": 5134,
      "Tu": 5135,
      "Wolf": 5136,
      "dates": 5137,
      "fare": 5138,
      "hl": 5139,
      "ipl": 5140,
      "lives": 5141,
      "inem": 5142,
      "edition": 5143,
      "repe": 5144,
      "restr": 5145,
      "rejected": 5146,
      "stable": 5147,
      "arian": 5148,
      "itude": 5149,
      "amic": 5150,
      "olay": 5151,
      "elle": 5152,
      "rival": 5153,
      "umes": 5154,
      "emot": 5155,
      "kept": 5156,
      "Ann": 5157,
      "weight": 5158,
      "regime": 5159,
      "element": 5160,
      "seconds": 5161,
      "secondary": 5162,
      "1987": 5163,
      "transl": 5164,
      "controll": 5165,
      "results": 5166,
      "Poland": 5167,
      "stitution": 5168,
      "divine": 5169,
      "System": 5170,
      "phase": 5171,
      "Markgraf": 5172,
      "focus": 5173,
      "increasingly": 5174,
      "lbw": 5175,
      "Krak": 5176,
      "Lewis": 5177,
      "Nichol": 5178,
      "Furtado": 5179,
      "BBC": 5180,
      "Fern": 5181,
      "NL": 5182,
      "Sol": 5183,
      "Way": 5184,
      "aj": 5185,
      "bra": 5186,
      "bass": 5187,
      "cance": 5188,
      "daily": 5189,
      "ease": 5190,
      "iot": 5191,
      "iations": 5192,
      "mess": 5193,
      "wins": 5194,
      "arrang": 5195,
      "chorus": 5196,
      "begun": 5197,
      "imens": 5198,
      "iday": 5199,
      "usual": 5200,
      "ocated": 5201,
      "quot": 5202,
      "timore": 5203,
      "izes": 5204,
      "condition": 5205,
      "minim": 5206,
      "genus": 5207,
      "Sholay": 5208,
      "1982": 5209,
      "Gram": 5210,
      "headquarters": 5211,
      "reports": 5212,
      "resulting": 5213,
      "risk": 5214,
      "green": 5215,
      "cases": 5216,
      "employed": 5217,
      "urban": 5218,
      "baby": 5219,
      "Lords": 5220,
      "cyclone": 5221,
      "Baby": 5222,
      "physical": 5223,
      "victim": 5224,
      "cruiser": 5225,
      "Baltimore": 5226,
      "NHL": 5227,
      "Turner": 5228,
      "battleship": 5229,
      "Meanwhile": 5230,
      "website": 5231,
      "55": 5232,
      "79": 5233,
      "Ari": 5234,
      "Bed": 5235,
      "Big": 5236,
      "DS": 5237,
      "Fras": 5238,
      "Gab": 5239,
      "Jay": 5240,
      "Mr": 5241,
      "UTC": 5242,
      "Wash": 5243,
      "bone": 5244,
      "dial": 5245,
      "fought": 5246,
      "hed": 5247,
      "iqu": 5248,
      "jazz": 5249,
      "inity": 5250,
      "ancy": 5251,
      "recon": 5252,
      "revol": 5253,
      "encour": 5254,
      "acher": 5255,
      "seems": 5256,
      "belong": 5257,
      "owie": 5258,
      "ulate": 5259,
      "comic": 5260,
      "emed": 5261,
      "extr": 5262,
      "prerogative": 5263,
      "offs": 5264,
      "news": 5265,
      "Austri": 5266,
      "therefore": 5267,
      "1943": 5268,
      "ashion": 5269,
      "didn": 5270,
      "Stephen": 5271,
      "Geoff": 5272,
      "subsequent": 5273,
      "Golden": 5274,
      "Middle": 5275,
      "Entertainment": 5276,
      "rapidly": 5277,
      "niowie": 5278,
      "Wiś": 5279,
      "Committee": 5280,
      "97": 5281,
      "AD": 5282,
      "Bos": 5283,
      "Bass": 5284,
      "CA": 5285,
      "Ell": 5286,
      "Field": 5287,
      "Gulf": 5288,
      "Hok": 5289,
      "Hung": 5290,
      "Lie": 5291,
      "Men": 5292,
      "Mah": 5293,
      "Rog": 5294,
      "Tower": 5295,
      "aire": 5296,
      "cited": 5297,
      "hired": 5298,
      "haps": 5299,
      "iences": 5300,
      "lit": 5301,
      "nick": 5302,
      "pal": 5303,
      "rush": 5304,
      "save": 5305,
      "tailed": 5306,
      "yson": 5307,
      "thews": 5308,
      "eds": 5309,
      "outer": 5310,
      "icts": 5311,
      "heard": 5312,
      "adult": 5313,
      "lywood": 5314,
      "resc": 5315,
      "utz": 5316,
      "asty": 5317,
      "compar": 5318,
      "aware": 5319,
      "18th": 5320,
      "commonly": 5321,
      "airport": 5322,
      "ension": 5323,
      "Also": 5324,
      "Albert": 5325,
      "Once": 5326,
      "176": 5327,
      "1981": 5328,
      "1972": 5329,
      "Germans": 5330,
      "depth": 5331,
      "km2": 5332,
      "designated": 5333,
      "crake": 5334,
      "personnel": 5335,
      "People": 5336,
      "slide": 5337,
      "ancient": 5338,
      "historian": 5339,
      "behav": 5340,
      "soundtrack": 5341,
      "alky": 5342,
      "favour": 5343,
      "Sunday": 5344,
      "launch": 5345,
      "dropped": 5346,
      "Type": 5347,
      "applied": 5348,
      "escape": 5349,
      "Argentina": 5350,
      "Tennyson": 5351,
      "routes": 5352,
      "jackrab": 5353,
      "newspaper": 5354,
      "happen": 5355,
      "Wiśniowie": 5356,
      "Bern": 5357,
      "Cro": 5358,
      "Due": 5359,
      "Free": 5360,
      "NS": 5361,
      "Nat": 5362,
      "Patty": 5363,
      "Rel": 5364,
      "Sen": 5365,
      "Tur": 5366,
      "Tropical": 5367,
      "Valky": 5368,
      "mine": 5369,
      "rise": 5370,
      "uge": 5371,
      "thm": 5372,
      "amino": 5373,
      "becomes": 5374,
      "igence": 5375,
      "opposed": 5376,
      "ette": 5377,
      "shr": 5378,
      "share": 5379,
      "shape": 5380,
      "shaped": 5381,
      "landfall": 5382,
      "ideas": 5383,
      "worst": 5384,
      "centuries": 5385,
      "rows": 5386,
      "Reception": 5387,
      "elev": 5388,
      "medical": 5389,
      "appeal": 5390,
      "Norman": 5391,
      "arrival": 5392,
      "eye": 5393,
      "succeeded": 5394,
      "ropol": 5395,
      "drama": 5396,
      "volume": 5397,
      "defences": 5398,
      "advent": 5399,
      "clubs": 5400,
      "holding": 5401,
      "Maggie": 5402,
      "certified": 5403,
      "travel": 5404,
      "question": 5405,
      "performing": 5406,
      "maintained": 5407,
      "pilot": 5408,
      "Castle": 5409,
      "weapons": 5410,
      "Southern": 5411,
      "Radio": 5412,
      "Dominican": 5413,
      "movie": 5414,
      "Premier": 5415,
      "Eaton": 5416,
      "41": 5417,
      "85": 5418,
      "Bark": 5419,
      "CP": 5420,
      "Gar": 5421,
      "Greg": 5422,
      "Jam": 5423,
      "Kel": 5424,
      "Mike": 5425,
      "Ob": 5426,
      "Ox": 5427,
      "Public": 5428,
      "Sat": 5429,
      "Stop": 5430,
      "Wall": 5431,
      "bond": 5432,
      "bats": 5433,
      "cab": 5434,
      "dig": 5435,
      "franch": 5436,
      "greg": 5437,
      "gained": 5438,
      "matter": 5439,
      "pse": 5440,
      "rates": 5441,
      "til": 5442,
      "independent": 5443,
      "itan": 5444,
      "adel": 5445,
      "adap": 5446,
      "igo": 5447,
      "ithic": 5448,
      "agric": 5449,
      "ctors": 5450,
      "ida": 5451,
      "oppos": 5452,
      "1918": 5453,
      "propos": 5454,
      "tru": 5455,
      "owners": 5456,
      "worship": 5457,
      "awards": 5458,
      "contributed": 5459,
      "creating": 5460,
      "headed": 5461,
      "marks": 5462,
      "USA": 5463,
      "lasted": 5464,
      "college": 5465,
      "collected": 5466,
      "ancing": 5467,
      "declined": 5468,
      "knowledge": 5469,
      "stopped": 5470,
      "multiple": 5471,
      "ategory": 5472,
      "Korean": 5473,
      "Weekly": 5474,
      "confirmed": 5475,
      "Washington": 5476,
      "43": 5477,
      "7th": 5478,
      "Gil": 5479,
      "Greek": 5480,
      "Here": 5481,
      "Hob": 5482,
      "Jon": 5483,
      "Lev": 5484,
      "Writ": 5485,
      "bul": 5486,
      "hi": 5487,
      "mart": 5488,
      "page": 5489,
      "sist": 5490,
      "ua": 5491,
      "inspir": 5492,
      "erick": 5493,
      "remix": 5494,
      "ora": 5495,
      "iring": 5496,
      "iments": 5497,
      "elim": 5498,
      "shared": 5499,
      "illustr": 5500,
      "perial": 5501,
      "avoid": 5502,
      "firing": 5503,
      "ached": 5504,
      "serial": 5505,
      "evac": 5506,
      "aired": 5507,
      "coal": 5508,
      "genre": 5509,
      "17th": 5510,
      "choir": 5511,
      "studied": 5512,
      "Guard": 5513,
      "passes": 5514,
      "1967": 5515,
      "reading": 5516,
      "prompt": 5517,
      "possibly": 5518,
      "charts": 5519,
      "agreement": 5520,
      "invas": 5521,
      "Songs": 5522,
      "Howe": 5523,
      "Howard": 5524,
      "economy": 5525,
      "improved": 5526,
      "nominated": 5527,
      "property": 5528,
      "execut": 5529,
      "briefly": 5530,
      "literature": 5531,
      "Alexander": 5532,
      "purchased": 5533,
      "Jesus": 5534,
      "aspects": 5535,
      "supplies": 5536,
      "converted": 5537,
      "wedding": 5538,
      "utenant": 5539,
      "Fraser": 5540,
      "88": 5541,
      "Age": 5542,
      "Flor": 5543,
      "Governor": 5544,
      "Iron": 5545,
      "Lou": 5546,
      "Ry": 5547,
      "VD": 5548,
      "bia": 5549,
      "cus": 5550,
      "crop": 5551,
      "crown": 5552,
      "dance": 5553,
      "hall": 5554,
      "horn": 5555,
      "iar": 5556,
      "mn": 5557,
      "rig": 5558,
      "wich": 5559,
      "walk": 5560,
      "ano": 5561,
      "theless": 5562,
      "onom": 5563,
      "enc": 5564,
      "entry": 5565,
      "chism": 5566,
      "plain": 5567,
      "iege": 5568,
      "compounds": 5569,
      "recently": 5570,
      "aug": 5571,
      "contained": 5572,
      "pread": 5573,
      "regarded": 5574,
      "Develop": 5575,
      "filmed": 5576,
      "surrender": 5577,
      "Johnston": 5578,
      "serving": 5579,
      "servation": 5580,
      "1970": 5581,
      "1966": 5582,
      "depict": 5583,
      "1951": 5584,
      "trial": 5585,
      "continues": 5586,
      "onym": 5587,
      "northwest": 5588,
      "idespread": 5589,
      "humans": 5590,
      "drawn": 5591,
      "glass": 5592,
      "recognized": 5593,
      "network": 5594,
      "model": 5595,
      "tells": 5596,
      "spirit": 5597,
      "missing": 5598,
      "teaching": 5599,
      "responded": 5600,
      "Palestine": 5601,
      "Gwen": 5602,
      "chemical": 5603,
      "Area": 5604,
      "Family": 5605,
      "permanent": 5606,
      "Lisa": 5607,
      "Admiral": 5608,
      "initiative": 5609,
      "Summer": 5610,
      "Wiśniowiecki": 5611,
      "batsman": 5612,
      "110": 5613,
      "Even": 5614,
      "Flight": 5615,
      "Liver": 5616,
      "Ocean": 5617,
      "Rangers": 5618,
      "die": 5619,
      "dating": 5620,
      "fuel": 5621,
      "nic": 5622,
      "ninth": 5623,
      "table": 5624,
      "infr": 5625,
      "institut": 5626,
      "arrest": 5627,
      "isol": 5628,
      "itness": 5629,
      "aces": 5630,
      "acid": 5631,
      "accur": 5632,
      "seat": 5633,
      "beaut": 5634,
      "demo": 5635,
      "unte": 5636,
      "ulations": 5637,
      "assass": 5638,
      "intend": 5639,
      "spot": 5640,
      "finish": 5641,
      "prefer": 5642,
      "airline": 5643,
      "Arm": 5644,
      "releg": 5645,
      "medieval": 5646,
      "choice": 5647,
      "1980": 5648,
      "decade": 5649,
      "decades": 5650,
      "operated": 5651,
      "inking": 5652,
      "district": 5653,
      "titled": 5654,
      "restaur": 5655,
      "frig": 5656,
      "solid": 5657,
      "alien": 5658,
      "howitz": 5659,
      "popularity": 5660,
      "criticism": 5661,
      "Michigan": 5662,
      "combination": 5663,
      "association": 5664,
      "religion": 5665,
      "invited": 5666,
      "growing": 5667,
      "Commander": 5668,
      "Revolution": 5669,
      "problem": 5670,
      "currently": 5671,
      "executive": 5672,
      "picked": 5673,
      "Valley": 5674,
      "Cathedral": 5675,
      "Industry": 5676,
      "atmosphere": 5677,
      "Coleman": 5678,
      "72": 5679,
      "Cull": 5680,
      "Det": 5681,
      "Kir": 5682,
      "Ode": 5683,
      "RI": 5684,
      "Rap": 5685,
      "Rod": 5686,
      "Ton": 5687,
      "brick": 5688,
      "din": 5689,
      "eu": 5690,
      "ito": 5691,
      "laid": 5692,
      "rative": 5693,
      "rural": 5694,
      "tied": 5695,
      "uate": 5696,
      "wart": 5697,
      "yer": 5698,
      "ying": 5699,
      "inf": 5700,
      "energy": 5701,
      "stages": 5702,
      "rose": 5703,
      "accompan": 5704,
      "adal": 5705,
      "deg": 5706,
      "imag": 5707,
      "agement": 5708,
      "plane": 5709,
      "ester": 5710,
      "exped": 5711,
      "iance": 5712,
      "fee": 5713,
      "Ant": 5714,
      "pregn": 5715,
      "iously": 5716,
      "nothing": 5717,
      "Recording": 5718,
      "myth": 5719,
      "supply": 5720,
      "rossing": 5721,
      "porters": 5722,
      "1960": 5723,
      "disturb": 5724,
      "Isa": 5725,
      "1952": 5726,
      "allows": 5727,
      "organization": 5728,
      "commandment": 5729,
      "Origin": 5730,
      "purpose": 5731,
      "difficulty": 5732,
      "Mathews": 5733,
      "electric": 5734,
      "circum": 5735,
      "poetry": 5736,
      "pattern": 5737,
      "reinforce": 5738,
      "Bulls": 5739,
      "Fernand": 5740,
      "Hokies": 5741,
      "Valkyria": 5742,
      "52": 5743,
      "800": 5744,
      "Bart": 5745,
      "Celt": 5746,
      "DC": 5747,
      "Daily": 5748,
      "DVD": 5749,
      "Hor": 5750,
      "IV": 5751,
      "Ko": 5752,
      "Ken": 5753,
      "Pass": 5754,
      "Power": 5755,
      "Rain": 5756,
      "cricket": 5757,
      "fresh": 5758,
      "sports": 5759,
      "tact": 5760,
      "virt": 5761,
      "widespread": 5762,
      "yellow": 5763,
      "thetic": 5764,
      "store": 5765,
      "assem": 5766,
      "chi": 5767,
      "vement": 5768,
      "union": 5769,
      "agent": 5770,
      "apy": 5771,
      "moves": 5772,
      "aste": 5773,
      "notable": 5774,
      "prising": 5775,
      "oking": 5776,
      "presents": 5777,
      "bute": 5778,
      "genet": 5779,
      "goes": 5780,
      "ifications": 5781,
      "student": 5782,
      "1945": 5783,
      "starts": 5784,
      "1950": 5785,
      "incident": 5786,
      "worldwide": 5787,
      "1930s": 5788,
      "possibility": 5789,
      "Steve": 5790,
      "explos": 5791,
      "indicate": 5792,
      "violence": 5793,
      "existing": 5794,
      "commission": 5795,
      "scholars": 5796,
      "convoy": 5797,
      "bottom": 5798,
      "learned": 5799,
      "Critical": 5800,
      "Throughout": 5801,
      "beyond": 5802,
      "Stanley": 5803,
      "Today": 5804,
      "WASP": 5805,
      "Liverpool": 5806,
      "51": 5807,
      "62": 5808,
      "Brian": 5809,
      "CD": 5810,
      "Djok": 5811,
      "Eli": 5812,
      "Fer": 5813,
      "Jun": 5814,
      "Mod": 5815,
      "Run": 5816,
      "border": 5817,
      "bought": 5818,
      "card": 5819,
      "cry": 5820,
      "dry": 5821,
      "eas": 5822,
      "hill": 5823,
      "arg": 5824,
      "asure": 5825,
      "itiz": 5826,
      "ada": 5827,
      "ading": 5828,
      "uration": 5829,
      "deploy": 5830,
      "devot": 5831,
      "sher": 5832,
      "atechism": 5833,
      "trou": 5834,
      "acks": 5835,
      "twel": 5836,
      "iped": 5837,
      "ption": 5838,
      "shel": 5839,
      "ruz": 5840,
      "phone": 5841,
      "phia": 5842,
      "anning": 5843,
      "monit": 5844,
      "colony": 5845,
      "eleven": 5846,
      "12th": 5847,
      "survey": 5848,
      "leads": 5849,
      "trying": 5850,
      "dram": 5851,
      "1937": 5852,
      "Board": 5853,
      "belief": 5854,
      "importance": 5855,
      "references": 5856,
      "rapped": 5857,
      "finds": 5858,
      "Williams": 5859,
      "drive": 5860,
      "Eastern": 5861,
      "expanded": 5862,
      "survived": 5863,
      "Maryland": 5864,
      "Lawrence": 5865,
      "PlayStation": 5866,
      "examples": 5867,
      "Daniel": 5868,
      "session": 5869,
      "credited": 5870,
      "frequently": 5871,
      "powers": 5872,
      "susp": 5873,
      "instrument": 5874,
      "secure": 5875,
      "negative": 5876,
      "moment": 5877,
      "District": 5878,
      "Leonard": 5879,
      "symbol": 5880,
      "paintings": 5881,
      "Barker": 5882,
      "franchise": 5883,
      "adelphia": 5884,
      "Development": 5885,
      "Djokovic": 5886,
      "89": 5887,
      "Ak": 5888,
      "Dark": 5889,
      "Each": 5890,
      "Hon": 5891,
      "Homer": 5892,
      "Jos": 5893,
      "Joy": 5894,
      "Nam": 5895,
      "Ros": 5896,
      "Witch": 5897,
      "branch": 5898,
      "cation": 5899,
      "fat": 5900,
      "mate": 5901,
      "pist": 5902,
      "sort": 5903,
      "ture": 5904,
      "tail": 5905,
      "wait": 5906,
      "án": 5907,
      "anth": 5908,
      "ange": 5909,
      "reconstruction": 5910,
      "ati": 5911,
      "enge": 5912,
      "stances": 5913,
      "arte": 5914,
      "arranged": 5915,
      "items": 5916,
      "aded": 5917,
      "adapt": 5918,
      "cture": 5919,
      "elabor": 5920,
      "ried": 5921,
      "emia": 5922,
      "ips": 5923,
      "bling": 5924,
      "elled": 5925,
      "formal": 5926,
      "Anth": 5927,
      "venues": 5928,
      "appearing": 5929,
      "remainder": 5930,
      "signing": 5931,
      "province": 5932,
      "receive": 5933,
      "1950s": 5934,
      "grapher": 5935,
      "simple": 5936,
      "willing": 5937,
      "styles": 5938,
      "deaths": 5939,
      "joint": 5940,
      "Nether": 5941,
      "BCE": 5942,
      "patron": 5943,
      "Malley": 5944,
      "injury": 5945,
      "painted": 5946,
      "slowly": 5947,
      "Human": 5948,
      "opportunity": 5949,
      "enjoyed": 5950,
      "degree": 5951,
      "57": 5952,
      "Bost": 5953,
      "Broad": 5954,
      "Ever": 5955,
      "Fame": 5956,
      "Journal": 5957,
      "Masters": 5958,
      "OC": 5959,
      "Peach": 5960,
      "Sound": 5961,
      "Top": 5962,
      "Xenon": 5963,
      "basketball": 5964,
      "cinem": 5965,
      "ech": 5966,
      "fashion": 5967,
      "gather": 5968,
      "obl": 5969,
      "ogue": 5970,
      "sought": 5971,
      "soft": 5972,
      "tall": 5973,
      "analy": 5974,
      "reli": 5975,
      "stab": 5976,
      "stret": 5977,
      "itage": 5978,
      "itled": 5979,
      "acres": 5980,
      "accom": 5981,
      "dean": 5982,
      "univers": 5983,
      "university": 5984,
      "agents": 5985,
      "teacher": 5986,
      "oph": 5987,
      "1919": 5988,
      "1914": 5989,
      "ateur": 5990,
      "aku": 5991,
      "perfect": 5992,
      "aved": 5993,
      "intell": 5994,
      "attributed": 5995,
      "spons": 5996,
      "coins": 5997,
      "flag": 5998,
      "anned": 5999,
      "speak": 6000,
      "retire": 6001,
      "eff": 6002,
      "valiers": 6003,
      "protection": 6004,
      "returning": 6005,
      "clean": 6006,
      "penalty": 6007,
      "Romanian": 6008,
      "Township": 6009,
      "SAS": 6010,
      "greatly": 6011,
      "Finals": 6012,
      "technical": 6013,
      "gradually": 6014,
      "Congress": 6015,
      "Chevaliers": 6016,
      "treatment": 6017,
      "ranean": 6018,
      "touchdown": 6019,
      "controversy": 6020,
      "Office": 6021,
      "Frederick": 6022,
      "Production": 6023,
      "Rolling": 6024,
      "Girls": 6025,
      "Additionally": 6026,
      "Wicca": 6027,
      "thousands": 6028,
      "Democr": 6029,
      "Louis": 6030,
      "institutions": 6031,
      "Ash": 6032,
      "CC": 6033,
      "Catechism": 6034,
      "Der": 6035,
      "Es": 6036,
      "Edu": 6037,
      "Fair": 6038,
      "Id": 6039,
      "Line": 6040,
      "Press": 6041,
      "Rail": 6042,
      "Sup": 6043,
      "Tay": 6044,
      "Upon": 6045,
      "Walter": 6046,
      "core": 6047,
      "dict": 6048,
      "ez": 6049,
      "fold": 6050,
      "ji": 6051,
      "kg": 6052,
      "knot": 6053,
      "mast": 6054,
      "nell": 6055,
      "trib": 6056,
      "zo": 6057,
      "throw": 6058,
      "invent": 6059,
      "resem": 6060,
      "encounter": 6061,
      "stood": 6062,
      "accompl": 6063,
      "iger": 6064,
      "ribe": 6065,
      "resist": 6066,
      "exerc": 6067,
      "inton": 6068,
      "offense": 6069,
      "spread": 6070,
      "ibr": 6071,
      "roughly": 6072,
      "colour": 6073,
      "capable": 6074,
      "Johnson": 6075,
      "description": 6076,
      "successor": 6077,
      "developing": 6078,
      "chell": 6079,
      "Forces": 6080,
      "Carre": 6081,
      "distingu": 6082,
      "protected": 6083,
      "250": 6084,
      "simply": 6085,
      "crim": 6086,
      "funding": 6087,
      "pressed": 6088,
      "towns": 6089,
      "sequently": 6090,
      "turning": 6091,
      "closely": 6092,
      "Magazine": 6093,
      "expans": 6094,
      "ivalent": 6095,
      "recognition": 6096,
      "planning": 6097,
      "satis": 6098,
      "watched": 6099,
      "strengthen": 6100,
      "emerged": 6101,
      "cruisers": 6102,
      "Simpsons": 6103,
      "settlement": 6104,
      "incorporated": 6105,
      "Rifles": 6106,
      "pupils": 6107,
      "Lieutenant": 6108,
      "Oxford": 6109,
      "59": 6110,
      "Bor": 6111,
      "Bol": 6112,
      "Bank": 6113,
      "Cress": 6114,
      "Grom": 6115,
      "Loc": 6116,
      "Pa": 6117,
      "Pry": 6118,
      "Ts": 6119,
      "Tra": 6120,
      "Vi": 6121,
      "Wag": 6122,
      "citiz": 6123,
      "dal": 6124,
      "fal": 6125,
      "pine": 6126,
      "sens": 6127,
      "ya": 6128,
      "thur": 6129,
      "oral": 6130,
      "stic": 6131,
      "lease": 6132,
      "sections": 6133,
      "champion": 6134,
      "deed": 6135,
      "agod": 6136,
      "shop": 6137,
      "Instead": 6138,
      "iful": 6139,
      "udes": 6140,
      "Stories": 6141,
      "scop": 6142,
      "Arthur": 6143,
      "What": 6144,
      "News": 6145,
      "Sha": 6146,
      "Norway": 6147,
      "parliament": 6148,
      "130": 6149,
      "towers": 6150,
      "1978": 6151,
      "carbon": 6152,
      "Allied": 6153,
      "breeding": 6154,
      "1936": 6155,
      "Fei": 6156,
      "priest": 6157,
      "urricanes": 6158,
      "Africaine": 6159,
      "looked": 6160,
      "alternative": 6161,
      "doub": 6162,
      "surviv": 6163,
      "entirely": 6164,
      "About": 6165,
      "technology": 6166,
      "Hollywood": 6167,
      "dollars": 6168,
      "Simon": 6169,
      "Columbia": 6170,
      "excavation": 6171,
      "failure": 6172,
      "temperature": 6173,
      "Martin": 6174,
      "challeng": 6175,
      "kilomet": 6176,
      "ceremony": 6177,
      "invasion": 6178,
      "Celtic": 6179,
      "Boston": 6180,
      "Taylor": 6181,
      "Bang": 6182,
      "Chel": 6183,
      "Dutch": 6184,
      "Fig": 6185,
      "Jenn": 6186,
      "Mic": 6187,
      "NBC": 6188,
      "Ow": 6189,
      "Rug": 6190,
      "Rhys": 6191,
      "Sand": 6192,
      "Van": 6193,
      "Wal": 6194,
      "caves": 6195,
      "dess": 6196,
      "danger": 6197,
      "gone": 6198,
      "ias": 6199,
      "mist": 6200,
      "ography": 6201,
      "va": 6202,
      "zone": 6203,
      "sector": 6204,
      "del": 6205,
      "Theatre": 6206,
      "agle": 6207,
      "iders": 6208,
      "moon": 6209,
      "cler": 6210,
      "perhaps": 6211,
      "assess": 6212,
      "Chief": 6213,
      "Stav": 6214,
      "Story": 6215,
      "intention": 6216,
      "auth": 6217,
      "auto": 6218,
      "poses": 6219,
      "Ark": 6220,
      "knock": 6221,
      "Commun": 6222,
      "substant": 6223,
      "capac": 6224,
      "brid": 6225,
      "adding": 6226,
      "covers": 6227,
      "depicted": 6228,
      "Before": 6229,
      "fung": 6230,
      "trip": 6231,
      "standards": 6232,
      "southwest": 6233,
      "Stefan": 6234,
      "classified": 6235,
      "Prime": 6236,
      "iverse": 6237,
      "Order": 6238,
      "coastal": 6239,
      "Among": 6240,
      "approached": 6241,
      "panel": 6242,
      "ruled": 6243,
      "suffering": 6244,
      "Philadelphia": 6245,
      "honor": 6246,
      "766th": 6247,
      "reasons": 6248,
      "holiday": 6249,
      "Congo": 6250,
      "Woodhouse": 6251,
      "Liber": 6252,
      "sessions": 6253,
      "faith": 6254,
      "Military": 6255,
      "Chapel": 6256,
      "sculpture": 6257,
      "Victoria": 6258,
      "distinct": 6259,
      "policy": 6260,
      "opinion": 6261,
      "custom": 6262,
      "Chronicles": 6263,
      "adapted": 6264,
      "Cullen": 6265,
      "Anthony": 6266,
      "Cresswell": 6267,
      "Pryce": 6268,
      "Rugby": 6269,
      "82": 6270,
      "Ath": 6271,
      "Dum": 6272,
      "Ders": 6273,
      "Dud": 6274,
      "Fre": 6275,
      "Gib": 6276,
      "Hy": 6277,
      "MTV": 6278,
      "Nav": 6279,
      "Nintend": 6280,
      "Op": 6281,
      "Ray": 6282,
      "Rem": 6283,
      "Rome": 6284,
      "Zanz": 6285,
      "eper": 6286,
      "hang": 6287,
      "kings": 6288,
      "kins": 6289,
      "lad": 6290,
      "march": 6291,
      "pap": 6292,
      "sun": 6293,
      "tle": 6294,
      "ux": 6295,
      "von": 6296,
      "witness": 6297,
      "ining": 6298,
      "onic": 6299,
      "oul": 6300,
      "iles": 6301,
      "entially": 6302,
      "championship": 6303,
      "concess": 6304,
      "tex": 6305,
      "comed": 6306,
      "abled": 6307,
      "negot": 6308,
      "expect": 6309,
      "odrom": 6310,
      "raising": 6311,
      "ourney": 6312,
      "blaz": 6313,
      "Stadium": 6314,
      "loan": 6315,
      "spin": 6316,
      "interpret": 6317,
      "monuments": 6318,
      "gameplay": 6319,
      "issance": 6320,
      "brace": 6321,
      "Marsh": 6322,
      "Bridge": 6323,
      "13th": 6324,
      "passeng": 6325,
      "1979": 6326,
      "Carl": 6327,
      "1955": 6328,
      "carved": 6329,
      "dominated": 6330,
      "breaking": 6331,
      "Boise": 6332,
      "commanded": 6333,
      "drawing": 6334,
      "killing": 6335,
      "suggests": 6336,
      "communities": 6337,
      "politics": 6338,
      "equivalent": 6339,
      "influences": 6340,
      "Briggs": 6341,
      "typical": 6342,
      "archaeology": 6343,
      "motion": 6344,
      "Priest": 6345,
      "fellow": 6346,
      "boxing": 6347,
      "composition": 6348,
      "acquired": 6349,
      "Offic": 6350,
      "multi": 6351,
      "excavations": 6352,
      "observations": 6353,
      "editor": 6354,
      "Temple": 6355,
      "delivered": 6356,
      "weakened": 6357,
      "Pattycake": 6358,
      "Modern": 6359,
      "Dershowitz": 6360,
      "Nintendo": 6361,
      "Zanzib": 6362,
      "61": 6363,
      "71": 6364,
      "Ag": 6365,
      "Bus": 6366,
      "Banks": 6367,
      "Cab": 6368,
      "Hou": 6369,
      "Mit": 6370,
      "Mot": 6371,
      "Ron": 6372,
      "Rose": 6373,
      "Tam": 6374,
      "Voy": 6375,
      "bits": 6376,
      "cave": 6377,
      "cular": 6378,
      "dish": 6379,
      "eighth": 6380,
      "knew": 6381,
      "py": 6382,
      "piano": 6383,
      "sle": 6384,
      "tone": 6385,
      "task": 6386,
      "erted": 6387,
      "icia": 6388,
      "accompany": 6389,
      "acids": 6390,
      "entering": 6391,
      "forcing": 6392,
      "deck": 6393,
      "olithic": 6394,
      "eless": 6395,
      "ota": 6396,
      "clock": 6397,
      "trust": 6398,
      "noting": 6399,
      "landing": 6400,
      "ulture": 6401,
      "Antim": 6402,
      "disaster": 6403,
      "rub": 6404,
      "ampions": 6405,
      "charges": 6406,
      "somewhat": 6407,
      "insula": 6408,
      "consists": 6409,
      "supposed": 6410,
      "longest": 6411,
      "parish": 6412,
      "signal": 6413,
      "memorial": 6414,
      "heads": 6415,
      "receiving": 6416,
      "1973": 6417,
      "1975": 6418,
      "1976": 6419,
      "1969": 6420,
      "winner": 6421,
      "protect": 6422,
      "getting": 6423,
      "Jackets": 6424,
      "systems": 6425,
      "strip": 6426,
      "facing": 6427,
      "Exe": 6428,
      "Magdal": 6429,
      "tested": 6430,
      "Pohl": 6431,
      "practices": 6432,
      "accused": 6433,
      "details": 6434,
      "consisting": 6435,
      "Singles": 6436,
      "Bradford": 6437,
      "Hugh": 6438,
      "experiment": 6439,
      "filled": 6440,
      "shooting": 6441,
      "Simpson": 6442,
      "opponents": 6443,
      "Albums": 6444,
      "crowd": 6445,
      "escort": 6446,
      "duties": 6447,
      "industrial": 6448,
      "Destiny": 6449,
      "Shortly": 6450,
      "sufficient": 6451,
      "accompanied": 6452,
      "Wagner": 6453,
      "Branch": 6454,
      "Cas": 6455,
      "Dra": 6456,
      "Dover": 6457,
      "Hard": 6458,
      "Nadal": 6459,
      "PC": 6460,
      "Person": 6461,
      "Rul": 6462,
      "Sem": 6463,
      "ffield": 6464,
      "gate": 6465,
      "governor": 6466,
      "hen": 6467,
      "hope": 6468,
      "math": 6469,
      "sn": 6470,
      "sip": 6471,
      "wave": 6472,
      "iná": 6473,
      "incess": 6474,
      "income": 6475,
      "oration": 6476,
      "stal": 6477,
      "lets": 6478,
      "acre": 6479,
      "ilton": 6480,
      "aments": 6481,
      "bean": 6482,
      "decre": 6483,
      "tery": 6484,
      "terior": 6485,
      "unes": 6486,
      "unch": 6487,
      "agree": 6488,
      "ctic": 6489,
      "apart": 6490,
      "shif": 6491,
      "Init": 6492,
      "ameter": 6493,
      "strateg": 6494,
      "grant": 6495,
      "derived": 6496,
      "recre": 6497,
      "forming": 6498,
      "ultan": 6499,
      "speaking": 6500,
      "Arsen": 6501,
      "minister": 6502,
      "cancer": 6503,
      "consult": 6504,
      "16th": 6505,
      "ribed": 6506,
      "locations": 6507,
      "pointed": 6508,
      "serves": 6509,
      "1971": 6510,
      "1965": 6511,
      "Carib": 6512,
      "atherine": 6513,
      "Clinton": 6514,
      "crime": 6515,
      "tries": 6516,
      "letic": 6517,
      "sequences": 6518,
      "factory": 6519,
      "glas": 6520,
      "effective": 6521,
      "divisions": 6522,
      "Express": 6523,
      "equal": 6524,
      "tests": 6525,
      "Braz": 6526,
      "Richmond": 6527,
      "moral": 6528,
      "archaeologist": 6529,
      "rooms": 6530,
      "regularly": 6531,
      "significantly": 6532,
      "Madero": 6533,
      "motor": 6534,
      "semif": 6535,
      "separated": 6536,
      "existence": 6537,
      "threatened": 6538,
      "assistant": 6539,
      "printed": 6540,
      "rupt": 6541,
      "Operation": 6542,
      "absor": 6543,
      "safety": 6544,
      "considerable": 6545,
      "Gardner": 6546,
      "Murray": 6547,
      "exclus": 6548,
      "vessels": 6549,
      "Douglas": 6550,
      "Brooks": 6551,
      "obtained": 6552,
      "Florida": 6553,
      "Toniná": 6554,
      "Dudley": 6555,
      "Arsenal": 6556,
      "Bul": 6557,
      "Cad": 6558,
      "Case": 6559,
      "Festival": 6560,
      "Gang": 6561,
      "Kur": 6562,
      "Now": 6563,
      "Omar": 6564,
      "Trib": 6565,
      "Ut": 6566,
      "Usher": 6567,
      "Wik": 6568,
      "gates": 6569,
      "sulf": 6570,
      "uan": 6571,
      "uset": 6572,
      "whel": 6573,
      "youth": 6574,
      "inian": 6575,
      "theory": 6576,
      "repl": 6577,
      "orche": 6578,
      "arning": 6579,
      "ingly": 6580,
      "toll": 6581,
      "rot": 6582,
      "roit": 6583,
      "acle": 6584,
      "ilst": 6585,
      "amateur": 6586,
      "chess": 6587,
      "lyn": 6588,
      "destruction": 6589,
      "ola": 6590,
      "olia": 6591,
      "aga": 6592,
      "rif": 6593,
      "opposition": 6594,
      "umps": 6595,
      "abol": 6596,
      "prot": 6597,
      "emp": 6598,
      "astru": 6599,
      "mention": 6600,
      "scape": 6601,
      "Head": 6602,
      "ultane": 6603,
      "finishing": 6604,
      "disease": 6605,
      "izations": 6606,
      "creator": 6607,
      "ansfield": 6608,
      "amps": 6609,
      "icks": 6610,
      "regional": 6611,
      "Asia": 6612,
      "1983": 6613,
      "check": 6614,
      "grounds": 6615,
      "Allosaurus": 6616,
      "Australians": 6617,
      "battalion": 6618,
      "denied": 6619,
      "iterranean": 6620,
      "divor": 6621,
      "Desc": 6622,
      "destroyers": 6623,
      "refers": 6624,
      "involving": 6625,
      "finding": 6626,
      "streak": 6627,
      "everything": 6628,
      "traveled": 6629,
      "patro": 6630,
      "Madison": 6631,
      "Mediterranean": 6632,
      "Imperial": 6633,
      "senior": 6634,
      "accounts": 6635,
      "railway": 6636,
      "Resear": 6637,
      "establishment": 6638,
      "beaten": 6639,
      "rhyme": 6640,
      "occasions": 6641,
      "instruments": 6642,
      "vehicles": 6643,
      "Muslim": 6644,
      "Guardian": 6645,
      "restaurant": 6646,
      "Detroit": 6647,
      "kilometres": 6648,
      "Stavanger": 6649,
      "capacity": 6650,
      "Houston": 6651,
      "Caribbean": 6652,
      "63": 6653,
      "Bio": 6654,
      "Corn": 6655,
      "Dom": 6656,
      "Dri": 6657,
      "Fall": 6658,
      "Found": 6659,
      "Fox": 6660,
      "Han": 6661,
      "Hart": 6662,
      "Jag": 6663,
      "Lan": 6664,
      "Rand": 6665,
      "Wat": 6666,
      "bind": 6667,
      "diet": 6668,
      "gall": 6669,
      "ien": 6670,
      "map": 6671,
      "nave": 6672,
      "rene": 6673,
      "reput": 6674,
      "sters": 6675,
      "itals": 6676,
      "learning": 6677,
      "illy": 6678,
      "forth": 6679,
      "urs": 6680,
      "unusual": 6681,
      "constant": 6682,
      "oty": 6683,
      "rifle": 6684,
      "1930": 6685,
      "prohib": 6686,
      "neck": 6687,
      "emperor": 6688,
      "exact": 6689,
      "udo": 6690,
      "overwhel": 6691,
      "grade": 6692,
      "achuset": 6693,
      "prised": 6694,
      "partly": 6695,
      "renamed": 6696,
      "Unlike": 6697,
      "interior": 6698,
      "regions": 6699,
      "producing": 6700,
      "someone": 6701,
      "Lee": 6702,
      "eyes": 6703,
      "hydro": 6704,
      "Sheffield": 6705,
      "operas": 6706,
      "download": 6707,
      "warm": 6708,
      "1961": 6709,
      "1964": 6710,
      "distribution": 6711,
      "defended": 6712,
      "evening": 6713,
      "courts": 6714,
      "arsen": 6715,
      "sentences": 6716,
      "barr": 6717,
      "brothers": 6718,
      "turns": 6719,
      "generation": 6720,
      "strike": 6721,
      "communication": 6722,
      "changing": 6723,
      "burg": 6724,
      "surviving": 6725,
      "relationships": 6726,
      "Atlanta": 6727,
      "Daydream": 6728,
      "apsed": 6729,
      "ifying": 6730,
      "assistance": 6731,
      "defined": 6732,
      "emergency": 6733,
      "secured": 6734,
      "embark": 6735,
      "administration": 6736,
      "Halo": 6737,
      "discovery": 6738,
      "methods": 6739,
      "pushed": 6740,
      "Coldrum": 6741,
      "Massachuset": 6742,
      "principal": 6743,
      "nurse": 6744,
      "happy": 6745,
      "recommended": 6746,
      "Grammy": 6747,
      "Fernandez": 6748,
      "Netherlands": 6749,
      "knots": 6750,
      "blazer": 6751,
      "Massachusetts": 6752,
      "67": 6753,
      "77": 6754,
      "Dream": 6755,
      "Ful": 6756,
      "Hun": 6757,
      "Hope": 6758,
      "Jac": 6759,
      "Kody": 6760,
      "Mu": 6761,
      "Mir": 6762,
      "Mel": 6763,
      "Prom": 6764,
      "Wy": 6765,
      "hits": 6766,
      "males": 6767,
      "nut": 6768,
      "pict": 6769,
      "rh": 6770,
      "rant": 6771,
      "siege": 6772,
      "tie": 6773,
      "tend": 6774,
      "vati": 6775,
      "wel": 6776,
      "intr": 6777,
      "inaug": 6778,
      "arro": 6779,
      "acruz": 6780,
      "beach": 6781,
      "oldest": 6782,
      "ceived": 6783,
      "usc": 6784,
      "1913": 6785,
      "aints": 6786,
      "romantic": 6787,
      "resour": 6788,
      "existed": 6789,
      "outs": 6790,
      "ritual": 6791,
      "assumed": 6792,
      "owner": 6793,
      "Third": 6794,
      "cool": 6795,
      "Alf": 6796,
      "Along": 6797,
      "ologist": 6798,
      "paralle": 6799,
      "1948": 6800,
      "1949": 6801,
      "musicians": 6802,
      "ristan": 6803,
      "listen": 6804,
      "listing": 6805,
      "1974": 6806,
      "offices": 6807,
      "attered": 6808,
      "describing": 6809,
      "aho": 6810,
      "1954": 6811,
      "1938": 6812,
      "bands": 6813,
      "Charlot": 6814,
      "communications": 6815,
      "wooden": 6816,
      "starred": 6817,
      "historians": 6818,
      "voiced": 6819,
      "copy": 6820,
      "Battalion": 6821,
      "Veracruz": 6822,
      "indicated": 6823,
      "telling": 6824,
      "occupation": 6825,
      "installed": 6826,
      "Angelou": 6827,
      "Hotel": 6828,
      "favorite": 6829,
      "Columbus": 6830,
      "Bradstreet": 6831,
      "hotel": 6832,
      "safe": 6833,
      "challenge": 6834,
      "severely": 6835,
      "Peninsula": 6836,
      "Persian": 6837,
      "Secretary": 6838,
      "article": 6839,
      "Bedell": 6840,
      "Antimony": 6841,
      "Research": 6842,
      "86": 6843,
      "91": 6844,
      "Benn": 6845,
      "CO": 6846,
      "Div": 6847,
      "Diam": 6848,
      "IG": 6849,
      "Lud": 6850,
      "Mos": 6851,
      "OK": 6852,
      "Por": 6853,
      "RAA": 6854,
      "Son": 6855,
      "Tal": 6856,
      "Tristan": 6857,
      "catch": 6858,
      "dog": 6859,
      "fine": 6860,
      "gang": 6861,
      "mac": 6862,
      "none": 6863,
      "sed": 6864,
      "snow": 6865,
      "ugu": 6866,
      "wid": 6867,
      "wet": 6868,
      "zac": 6869,
      "inet": 6870,
      "infl": 6871,
      "theat": 6872,
      "renew": 6873,
      "orer": 6874,
      "enzy": 6875,
      "stall": 6876,
      "hear": 6877,
      "heim": 6878,
      "admitted": 6879,
      "uri": 6880,
      "unsuccessful": 6881,
      "agn": 6882,
      "eld": 6883,
      "1911": 6884,
      "umb": 6885,
      "pled": 6886,
      "exh": 6887,
      "exit": 6888,
      "iven": 6889,
      "overs": 6890,
      "Champion": 6891,
      "affect": 6892,
      "Stand": 6893,
      "Heaven": 6894,
      "desire": 6895,
      "display": 6896,
      "dismissed": 6897,
      "dissip": 6898,
      "ansas": 6899,
      "coin": 6900,
      "flat": 6901,
      "Around": 6902,
      "Arts": 6903,
      "whereas": 6904,
      "setting": 6905,
      "symp": 6906,
      "filming": 6907,
      "medium": 6908,
      "engage": 6909,
      "providing": 6910,
      "Guide": 6911,
      "1962": 6912,
      "skin": 6913,
      "Parvati": 6914,
      "Project": 6915,
      "footage": 6916,
      "faces": 6917,
      "Palace": 6918,
      "looks": 6919,
      "Swiss": 6920,
      "Ministry": 6921,
      "statistics": 6922,
      "Corbet": 6923,
      "females": 6924,
      "introduction": 6925,
      "dependence": 6926,
      "stayed": 6927,
      "treated": 6928,
      "itzer": 6929,
      "Quine": 6930,
      "Jersey": 6931,
      "responsibility": 6932,
      "stationed": 6933,
      "achieve": 6934,
      "focused": 6935,
      "Israeli": 6936,
      "nomination": 6937,
      "painting": 6938,
      "immediate": 6939,
      "rhythm": 6940,
      "Trees": 6941,
      "photograph": 6942,
      "Transport": 6943,
      "windows": 6944,
      "attracted": 6945,
      "Television": 6946,
      "collaboration": 6947,
      "wearing": 6948,
      "Species": 6949,
      "birds": 6950,
      "extremely": 6951,
      "leukemia": 6952,
      "academic": 6953,
      "fixed": 6954,
      "submarine": 6955,
      "revolution": 6956,
      "Kelly": 6957,
      "martial": 6958,
      "circumstances": 6959,
      "twelve": 6960,
      "Education": 6961,
      "Idaho": 6962,
      "Zanzibar": 6963,
      "Mitchell": 6964,
      "Brazil": 6965,
      "Charlotte": 6966,
      "05": 6967,
      "93": 6968,
      "Category": 6969,
      "Five": 6970,
      "Gro": 6971,
      "IOC": 6972,
      "Kō": 6973,
      "Mun": 6974,
      "Oh": 6975,
      "Our": 6976,
      "Pan": 6977,
      "Sav": 6978,
      "Sue": 6979,
      "Soon": 6980,
      "Uran": 6981,
      "Vis": 6982,
      "Wind": 6983,
      "Wrapped": 6984,
      "Your": 6985,
      "ees": 6986,
      "gor": 6987,
      "mud": 6988,
      "mally": 6989,
      "ook": 6990,
      "pp": 6991,
      "rong": 6992,
      "squad": 6993,
      "vary": 6994,
      "inte": 6995,
      "atures": 6996,
      "anda": 6997,
      "icipal": 6998,
      "entitled": 6999,
      "aming": 7000,
      "chamber": 7001,
      "beth": 7002,
      "immig": 7003,
      "why": 7004,
      "1900": 7005,
      "plate": 7006,
      "istan": 7007,
      "mos": 7008,
      "superi": 7009,
      "exception": 7010,
      "aked": 7011,
      "ivity": 7012,
      "astron": 7013,
      "strate": 7014,
      "compon": 7015,
      "computer": 7016,
      "recalled": 7017,
      "oked": 7018,
      "awn": 7019,
      "contact": 7020,
      "Anton": 7021,
      "interchange": 7022,
      "speech": 7023,
      "Alan": 7024,
      "Ontar": 7025,
      "operate": 7026,
      "porter": 7027,
      "lists": 7028,
      "1977": 7029,
      "volunte": 7030,
      "Carter": 7031,
      "distributed": 7032,
      "armament": 7033,
      "characteristics": 7034,
      "kingdom": 7035,
      "Team": 7036,
      "classes": 7037,
      "periods": 7038,
      "falling": 7039,
      "believes": 7040,
      "goddess": 7041,
      "effectively": 7042,
      "correct": 7043,
      "criticised": 7044,
      "Magic": 7045,
      "decline": 7046,
      "islands": 7047,
      "purposes": 7048,
      "difficulties": 7049,
      "interested": 7050,
      "Abd": 7051,
      "terminus": 7052,
      "hosted": 7053,
      "Prior": 7054,
      "crossed": 7055,
      "quarterback": 7056,
      "detail": 7057,
      "composer": 7058,
      "Haitian": 7059,
      "objective": 7060,
      "animal": 7061,
      "keeping": 7062,
      "wickets": 7063,
      "Patrick": 7064,
      "Survey": 7065,
      "debate": 7066,
      "Build": 7067,
      "defenders": 7068,
      "possession": 7069,
      "Creutz": 7070,
      "candidate": 7071,
      "preserved": 7072,
      "Historic": 7073,
      "global": 7074,
      "Hellblazer": 7075,
      "Palmyrene": 7076,
      "arrangement": 7077,
      "Hungarian": 7078,
      "IGN": 7079,
      "Ontario": 7080,
      "4th": 7081,
      "700": 7082,
      "Burn": 7083,
      "Bron": 7084,
      "Bald": 7085,
      "Cart": 7086,
      "Every": 7087,
      "Life": 7088,
      "Oscar": 7089,
      "Rh": 7090,
      "Sultan": 7091,
      "Vander": 7092,
      "Wander": 7093,
      "d4": 7094,
      "dden": 7095,
      "ee": 7096,
      "htw": 7097,
      "jan": 7098,
      "sid": 7099,
      "saves": 7100,
      "tes": 7101,
      "tale": 7102,
      "taught": 7103,
      "wish": 7104,
      "wants": 7105,
      "thin": 7106,
      "replace": 7107,
      "arc": 7108,
      "aced": 7109,
      "amph": 7110,
      "ammun": 7111,
      "iri": 7112,
      "irs": 7113,
      "agues": 7114,
      "aggress": 7115,
      "context": 7116,
      "eline": 7117,
      "aph": 7118,
      "apse": 7119,
      "opt": 7120,
      "option": 7121,
      "ables": 7122,
      "prove": 7123,
      "cloth": 7124,
      "ishment": 7125,
      "mann": 7126,
      "quite": 7127,
      "Charm": 7128,
      "grid": 7129,
      "dub": 7130,
      "recur": 7131,
      "recru": 7132,
      "attached": 7133,
      "Anti": 7134,
      "Anzac": 7135,
      "viewed": 7136,
      "160": 7137,
      "helic": 7138,
      "Season": 7139,
      "1963": 7140,
      "1953": 7141,
      "1959": 7142,
      "designation": 7143,
      "iversary": 7144,
      "funds": 7145,
      "extent": 7146,
      "visible": 7147,
      "Feel": 7148,
      "appropri": 7149,
      "frame": 7150,
      "Space": 7151,
      "strongly": 7152,
      "laws": 7153,
      "Pho": 7154,
      "diameter": 7155,
      "promote": 7156,
      "affair": 7157,
      "altern": 7158,
      "nyi": 7159,
      "defeating": 7160,
      "detailed": 7161,
      "surrounded": 7162,
      "occasionally": 7163,
      "architecture": 7164,
      "aerodrom": 7165,
      "controversial": 7166,
      "struggle": 7167,
      "ATP": 7168,
      "Belgian": 7169,
      "documentary": 7170,
      "Wellington": 7171,
      "Francisco": 7172,
      "mobile": 7173,
      "benefit": 7174,
      "iques": 7175,
      "inspiration": 7176,
      "infrastru": 7177,
      "texts": 7178,
      "protagon": 7179,
      "RAAF": 7180,
      "Quiney": 7181,
      "ammunition": 7182,
      "84": 7183,
      "Bad": 7184,
      "Ball": 7185,
      "Gi": 7186,
      "Gra": 7187,
      "Hair": 7188,
      "Having": 7189,
      "Jere": 7190,
      "Jones": 7191,
      "Kong": 7192,
      "Les": 7193,
      "Loy": 7194,
      "MV": 7195,
      "Panz": 7196,
      "Pagan": 7197,
      "Ra": 7198,
      "Spring": 7199,
      "Tales": 7200,
      "Win": 7201,
      "cann": 7202,
      "ients": 7203,
      "ja": 7204,
      "ko": 7205,
      "mere": 7206,
      "tick": 7207,
      "ule": 7208,
      "wan": 7209,
      "ön": 7210,
      "thy": 7211,
      "rets": 7212,
      "itated": 7213,
      "ione": 7214,
      "seas": 7215,
      "bearing": 7216,
      "ows": 7217,
      "ride": 7218,
      "apped": 7219,
      "1916": 7220,
      "plants": 7221,
      "etch": 7222,
      "shock": 7223,
      "shots": 7224,
      "neither": 7225,
      "oceratops": 7226,
      "ocaust": 7227,
      "exposed": 7228,
      "manner": 7229,
      "acknow": 7230,
      "posure": 7231,
      "elling": 7232,
      "offers": 7233,
      "shipping": 7234,
      "phil": 7235,
      "flash": 7236,
      "intersection": 7237,
      "anything": 7238,
      "recordings": 7239,
      "regist": 7240,
      "Reines": 7241,
      "ernon": 7242,
      "consol": 7243,
      "lane": 7244,
      "See": 7245,
      "valid": 7246,
      "lights": 7247,
      "Dyn": 7248,
      "depicts": 7249,
      "Canal": 7250,
      "simultane": 7251,
      "talent": 7252,
      "1935": 7253,
      "claiming": 7254,
      "classic": 7255,
      "classical": 7256,
      "Prov": 7257,
      "involvement": 7258,
      "streets": 7259,
      "Berlin": 7260,
      "1909": 7261,
      "agogue": 7262,
      "needs": 7263,
      "seeing": 7264,
      "Final": 7265,
      "techniques": 7266,
      "ranging": 7267,
      "crews": 7268,
      "spacecraft": 7269,
      "engineering": 7270,
      "injured": 7271,
      "Montana": 7272,
      "Similar": 7273,
      "hoped": 7274,
      "Campbell": 7275,
      "Nightingale": 7276,
      "Argentine": 7277,
      "recovered": 7278,
      "joining": 7279,
      "neutral": 7280,
      "biography": 7281,
      "ratings": 7282,
      "freed": 7283,
      "colonial": 7284,
      "hundreds": 7285,
      "Commonwealth": 7286,
      "junction": 7287,
      "regarding": 7288,
      "thirty": 7289,
      "ordinary": 7290,
      "inscription": 7291,
      "replacement": 7292,
      "usaders": 7293,
      "Jean": 7294,
      "Satur": 7295,
      "Hobbs": 7296,
      "elaborate": 7297,
      "Everton": 7298,
      "agoda": 7299,
      "doubt": 7300,
      "bracelet": 7301,
      "reputation": 7302,
      "exhaust": 7303,
      "Urania": 7304,
      "superior": 7305,
      "Wanderers": 7306,
      "htwald": 7307,
      "Panzer": 7308,
      "66": 7309,
      "92": 7310,
      "99": 7311,
      "900": 7312,
      "Ah": 7313,
      "BS": 7314,
      "Di": 7315,
      "ES": 7316,
      "Hay": 7317,
      "Hockey": 7318,
      "Kit": 7319,
      "Nash": 7320,
      "Ridge": 7321,
      "Shim": 7322,
      "Syn": 7323,
      "Tron": 7324,
      "Walk": 7325,
      "Zoo": 7326,
      "cos": 7327,
      "caught": 7328,
      "dheim": 7329,
      "egg": 7330,
      "grown": 7331,
      "jac": 7332,
      "journey": 7333,
      "psy": 7334,
      "puzz": 7335,
      "san": 7336,
      "uous": 7337,
      "wa": 7338,
      "ye": 7339,
      "inland": 7340,
      "stations": 7341,
      "aria": 7342,
      "icul": 7343,
      "het": 7344,
      "seg": 7345,
      "concer": 7346,
      "1915": 7347,
      "1929": 7348,
      "resign": 7349,
      "util": 7350,
      "shar": 7351,
      "proceed": 7352,
      "peare": 7353,
      "trained": 7354,
      "emies": 7355,
      "ifer": 7356,
      "arden": 7357,
      "essential": 7358,
      "outbreak": 7359,
      "herd": 7360,
      "ranking": 7361,
      "aws": 7362,
      "libr": 7363,
      "liked": 7364,
      "contribut": 7365,
      "spur": 7366,
      "posit": 7367,
      "ogy": 7368,
      "dissol": 7369,
      "anniversary": 7370,
      "athers": 7371,
      "ensus": 7372,
      "noot": 7373,
      "Alg": 7374,
      "gene": 7375,
      "numbered": 7376,
      "supporters": 7377,
      "Shakes": 7378,
      "hyg": 7379,
      "Marg": 7380,
      "Grade": 7381,
      "provides": 7382,
      "1968": 7383,
      "Form": 7384,
      "Islands": 7385,
      "1958": 7386,
      "skills": 7387,
      "justice": 7388,
      "humor": 7389,
      "explains": 7390,
      "suggesting": 7391,
      "Design": 7392,
      "politic": 7393,
      "correspond": 7394,
      "burial": 7395,
      "representative": 7396,
      "Anglo": 7397,
      "Point": 7398,
      "archaeologists": 7399,
      "employment": 7400,
      "select": 7401,
      "crosses": 7402,
      "pani": 7403,
      "rules": 7404,
      "measures": 7405,
      "instance": 7406,
      "spaces": 7407,
      "Cardiff": 7408,
      "Donald": 7409,
      "rays": 7410,
      "watching": 7411,
      "Hamilton": 7412,
      "feeling": 7413,
      "concerned": 7414,
      "absence": 7415,
      "Ernest": 7416,
      "linked": 7417,
      "recovery": 7418,
      "bringing": 7419,
      "rarely": 7420,
      "opportunities": 7421,
      "leadership": 7422,
      "Belgium": 7423,
      "Memorial": 7424,
      "rugby": 7425,
      "carrying": 7426,
      "restored": 7427,
      "Swedish": 7428,
      "Archaeology": 7429,
      "pitched": 7430,
      "Colonel": 7431,
      "Villaret": 7432,
      "decorated": 7433,
      "younger": 7434,
      "closer": 7435,
      "cotton": 7436,
      "controller": 7437,
      "battleships": 7438,
      "agricultural": 7439,
      "Writing": 7440,
      "Ryan": 7441,
      "encies": 7442,
      "isolated": 7443,
      "easily": 7444,
      "expansion": 7445,
      "satisf": 7446,
      "authors": 7447,
      "fungus": 7448,
      "concession": 7449,
      "Vandernoot": 7450,
      "Charmbracelet": 7451,
      "Trondheim": 7452,
      "Shakespeare": 7453,
      "114": 7454,
      "Bou": 7455,
      "Cd": 7456,
      "Crown": 7457,
      "Dor": 7458,
      "Hurricanes": 7459,
      "Kon": 7460,
      "Kim": 7461,
      "Kenn": 7462,
      "Mol": 7463,
      "Mov": 7464,
      "PA": 7465,
      "Pict": 7466,
      "Ret": 7467,
      "Sar": 7468,
      "Say": 7469,
      "Ten": 7470,
      "Tro": 7471,
      "Test": 7472,
      "Treat": 7473,
      "VI": 7474,
      "Vice": 7475,
      "WNO": 7476,
      "dad": 7477,
      "fts": 7478,
      "gle": 7479,
      "mary": 7480,
      "oing": 7481,
      "ocean": 7482,
      "sight": 7483,
      "sung": 7484,
      "tight": 7485,
      "uff": 7486,
      "vac": 7487,
      "wrong": 7488,
      "theatre": 7489,
      "remn": 7490,
      "represents": 7491,
      "ensure": 7492,
      "stores": 7493,
      "heat": 7494,
      "leaves": 7495,
      "wasn": 7496,
      "deity": 7497,
      "olen": 7498,
      "imen": 7499,
      "improv": 7500,
      "terbury": 7501,
      "cement": 7502,
      "withdrew": 7503,
      "etime": 7504,
      "romet": 7505,
      "abour": 7506,
      "shut": 7507,
      "ishops": 7508,
      "oder": 7509,
      "astra": 7510,
      "gray": 7511,
      "landed": 7512,
      "lose": 7513,
      "renov": 7514,
      "desert": 7515,
      "indigo": 7516,
      "fled": 7517,
      "speaker": 7518,
      "temple": 7519,
      "buoys": 7520,
      "retained": 7521,
      "tenure": 7522,
      "product": 7523,
      "normally": 7524,
      "views": 7525,
      "15th": 7526,
      "aza": 7527,
      "steam": 7528,
      "showing": 7529,
      "passage": 7530,
      "advancing": 7531,
      "Canterbury": 7532,
      "1956": 7533,
      "1957": 7534,
      "USD": 7535,
      "Plot": 7536,
      "northward": 7537,
      "1931": 7538,
      "Romania": 7539,
      "organised": 7540,
      "attempting": 7541,
      "Paraly": 7542,
      "approved": 7543,
      "fallen": 7544,
      "Proto": 7545,
      "Evans": 7546,
      "generated": 7547,
      "soul": 7548,
      "limit": 7549,
      "Within": 7550,
      "magic": 7551,
      "naissance": 7552,
      "burgh": 7553,
      "Berhtwald": 7554,
      "Switzer": 7555,
      "survive": 7556,
      "electron": 7557,
      "Elgin": 7558,
      "Media": 7559,
      "Preston": 7560,
      "collapsed": 7561,
      "riding": 7562,
      "Mexican": 7563,
      "Player": 7564,
      "accident": 7565,
      "prede": 7566,
      "ucky": 7567,
      "Holocaust": 7568,
      "forests": 7569,
      "Arabic": 7570,
      "animals": 7571,
      "batteries": 7572,
      "feelings": 7573,
      "favorable": 7574,
      "treaty": 7575,
      "territories": 7576,
      "Trans": 7577,
      "department": 7578,
      "habitat": 7579,
      "Palestinian": 7580,
      "Popular": 7581,
      "Qedarites": 7582,
      "drums": 7583,
      "premiered": 7584,
      "brigades": 7585,
      "pounder": 7586,
      "ethnic": 7587,
      "pursue": 7588,
      "minimum": 7589,
      "dialogue": 7590,
      "jackrabbit": 7591,
      "ropolitan": 7592,
      "opposite": 7593,
      "beautiful": 7594,
      "genetic": 7595,
      "pistol": 7596,
      "Chelsea": 7597,
      "Navarro": 7598,
      "Foundation": 7599,
      "uscript": 7600,
      "integr": 7601,
      "Paralymp": 7602,
      "07": 7603,
      "58": 7604,
      "Again": 7605,
      "Eagle": 7606,
      "Fron": 7607,
      "Farm": 7608,
      "Federal": 7609,
      "Got": 7610,
      "Jr": 7611,
      "Kau": 7612,
      "Libr": 7613,
      "Si": 7614,
      "Saf": 7615,
      "Santa": 7616,
      "Ur": 7617,
      "Uy": 7618,
      "Vo": 7619,
      "Women": 7620,
      "bay": 7621,
      "cial": 7622,
      "cold": 7623,
      "cock": 7624,
      "citing": 7625,
      "gren": 7626,
      "jump": 7627,
      "ki": 7628,
      "kne": 7629,
      "lord": 7630,
      "sop": 7631,
      "saku": 7632,
      "tip": 7633,
      "uer": 7634,
      "vation": 7635,
      "zomb": 7636,
      "ław": 7637,
      "remark": 7638,
      "iser": 7639,
      "rob": 7640,
      "adier": 7641,
      "semb": 7642,
      "sevent": 7643,
      "omura": 7644,
      "channel": 7645,
      "implement": 7646,
      "whilst": 7647,
      "conve": 7648,
      "1917": 7649,
      "uma": 7650,
      "resigned": 7651,
      "sures": 7652,
      "sho": 7653,
      "cles": 7654,
      "clay": 7655,
      "Independent": 7656,
      "neth": 7657,
      "ighter": 7658,
      "aka": 7659,
      "manuscript": 7660,
      "Channel": 7661,
      "Style": 7662,
      "parties": 7663,
      "partners": 7664,
      "meets": 7665,
      "rend": 7666,
      "pressing": 7667,
      "ricus": 7668,
      "ibi": 7669,
      "archbishop": 7670,
      "Austro": 7671,
      "myel": 7672,
      "Asian": 7673,
      "calls": 7674,
      "azines": 7675,
      "decay": 7676,
      "unting": 7677,
      "Brack": 7678,
      "musician": 7679,
      "covering": 7680,
      "persu": 7681,
      "legs": 7682,
      "vari": 7683,
      "attacking": 7684,
      "armour": 7685,
      "fundam": 7686,
      "marry": 7687,
      "organizations": 7688,
      "realized": 7689,
      "profit": 7690,
      "mixture": 7691,
      "Neolithic": 7692,
      "nightingale": 7693,
      "tours": 7694,
      "basic": 7695,
      "Georg": 7696,
      "altered": 7697,
      "Egyptians": 7698,
      "doesn": 7699,
      "technique": 7700,
      "recognised": 7701,
      "Superman": 7702,
      "Moore": 7703,
      "traits": 7704,
      "Country": 7705,
      "reveals": 7706,
      "grave": 7707,
      "Looking": 7708,
      "nucle": 7709,
      "rupted": 7710,
      "Opera": 7711,
      "discussed": 7712,
      "badly": 7713,
      "pilots": 7714,
      "Russia": 7715,
      "Korea": 7716,
      "neutr": 7717,
      "Victorian": 7718,
      "Bloom": 7719,
      "Robin": 7720,
      "qualified": 7721,
      "premiere": 7722,
      "demol": 7723,
      "legislation": 7724,
      "split": 7725,
      "platform": 7726,
      "message": 7727,
      "encouraged": 7728,
      "happened": 7729,
      "CPS": 7730,
      "preferred": 7731,
      "expedition": 7732,
      "dramatic": 7733,
      "intelligence": 7734,
      "retirement": 7735,
      "Owen": 7736,
      "Banksia": 7737,
      "Ruler": 7738,
      "Kōsaku": 7739,
      "Shimomura": 7740,
      "Switzerland": 7741,
      "predecess": 7742,
      "sembly": 7743,
      "81": 7744,
      "Cur": 7745,
      "Dig": 7746,
      "DNA": 7747,
      "Hud": 7748,
      "Imb": 7749,
      "Imm": 7750,
      "Ka": 7751,
      "Late": 7752,
      "Labor": 7753,
      "MD": 7754,
      "Pot": 7755,
      "Spe": 7756,
      "Slayer": 7757,
      "Ta": 7758,
      "U2": 7759,
      "Xook": 7760,
      "gers": 7761,
      "hire": 7762,
      "jew": 7763,
      "lake": 7764,
      "pale": 7765,
      "ridge": 7766,
      "sunk": 7767,
      "ugh": 7768,
      "vide": 7769,
      "wheel": 7770,
      "zon": 7771,
      "inhabit": 7772,
      "anch": 7773,
      "stim": 7774,
      "stick": 7775,
      "icit": 7776,
      "acon": 7777,
      "seem": 7778,
      "chant": 7779,
      "chronic": 7780,
      "beam": 7781,
      "impossible": 7782,
      "owed": 7783,
      "uncertain": 7784,
      "agen": 7785,
      "ela": 7786,
      "1910": 7787,
      "1927": 7788,
      "resent": 7789,
      "ressing": 7790,
      "resident": 7791,
      "abo": 7792,
      "sudden": 7793,
      "ifies": 7794,
      "exchange": 7795,
      "exposure": 7796,
      "permission": 7797,
      "ipel": 7798,
      "lowest": 7799,
      "guides": 7800,
      "weet": 7801,
      "answ": 7802,
      "airports": 7803,
      "annually": 7804,
      "enses": 7805,
      "noon": 7806,
      "noble": 7807,
      "understanding": 7808,
      "Joe": 7809,
      "Where": 7810,
      "Bright": 7811,
      "smen": 7812,
      "memor": 7813,
      "memory": 7814,
      "completion": 7815,
      "valu": 7816,
      "designs": 7817,
      "crash": 7818,
      "Europ": 7819,
      "stands": 7820,
      "Advent": 7821,
      "Prof": 7822,
      "Peters": 7823,
      "solar": 7824,
      "Earnest": 7825,
      "Charac": 7826,
      "magazines": 7827,
      "planes": 7828,
      "representing": 7829,
      "appointment": 7830,
      "oxy": 7831,
      "Madrid": 7832,
      "baseball": 7833,
      "Crab": 7834,
      "synagogue": 7835,
      "vote": 7836,
      "voted": 7837,
      "municipal": 7838,
      "specifically": 7839,
      "Loose": 7840,
      "calc": 7841,
      "powered": 7842,
      "scientists": 7843,
      "shells": 7844,
      "opponent": 7845,
      "Devin": 7846,
      "chairman": 7847,
      "Sweden": 7848,
      "FIFA": 7849,
      "environmental": 7850,
      "Ulster": 7851,
      "columns": 7852,
      "victims": 7853,
      "rescue": 7854,
      "Alberta": 7855,
      "Eliza": 7856,
      "resistance": 7857,
      "survivors": 7858,
      "Arkansas": 7859,
      "Stefani": 7860,
      "accompanying": 7861,
      "Gangan": 7862,
      "Wikiped": 7863,
      "Bennett": 7864,
      "helicop": 7865,
      "infrastructure": 7866,
      "MVP": 7867,
      "jacent": 7868,
      "hygromet": 7869,
      "Imbudo": 7870,
      "Ald": 7871,
      "Bath": 7872,
      "Come": 7873,
      "Cricket": 7874,
      "Dí": 7875,
      "Eve": 7876,
      "Face": 7877,
      "Hg": 7878,
      "Hop": 7879,
      "IS": 7880,
      "Las": 7881,
      "Mand": 7882,
      "Much": 7883,
      "Nu": 7884,
      "Oreg": 7885,
      "Pok": 7886,
      "Ren": 7887,
      "Sina": 7888,
      "Tar": 7889,
      "Tot": 7890,
      "UC": 7891,
      "dens": 7892,
      "fant": 7893,
      "giant": 7894,
      "harm": 7895,
      "lined": 7896,
      "mates": 7897,
      "rí": 7898,
      "sang": 7899,
      "tub": 7900,
      "ware": 7901,
      "wives": 7902,
      "zed": 7903,
      "Ímar": 7904,
      "inct": 7905,
      "eros": 7906,
      "erry": 7907,
      "rey": 7908,
      "orph": 7909,
      "orient": 7910,
      "orbit": 7911,
      "stap": 7912,
      "stadium": 7913,
      "touring": 7914,
      "iling": 7915,
      "adys": 7916,
      "adjacent": 7917,
      "veget": 7918,
      "oll": 7919,
      "imprison": 7920,
      "agency": 7921,
      "constitut": 7922,
      "oted": 7923,
      "ully": 7924,
      "teor": 7925,
      "erected": 7926,
      "riarch": 7927,
      "opher": 7928,
      "1926": 7929,
      "plus": 7930,
      "uty": 7931,
      "absol": 7932,
      "osis": 7933,
      "acked": 7934,
      "Charts": 7935,
      "sche": 7936,
      "liqu": 7937,
      "weigh": 7938,
      "prep": 7939,
      "coord": 7940,
      "internal": 7941,
      "charity": 7942,
      "products": 7943,
      "publishing": 7944,
      "Nov": 7945,
      "170": 7946,
      "1940s": 7947,
      "steel": 7948,
      "Marge": 7949,
      "aiman": 7950,
      "Rober": 7951,
      "statement": 7952,
      "Beh": 7953,
      "isms": 7954,
      "itarian": 7955,
      "continuing": 7956,
      "rising": 7957,
      "pleasure": 7958,
      "Police": 7959,
      "Organ": 7960,
      "Earl": 7961,
      "rounds": 7962,
      "reality": 7963,
      "collect": 7964,
      "Blackie": 7965,
      "Neil": 7966,
      "Track": 7967,
      "poems": 7968,
      "Harmon": 7969,
      "radiation": 7970,
      "Barry": 7971,
      "discipl": 7972,
      "victories": 7973,
      "driven": 7974,
      "audio": 7975,
      "audiences": 7976,
      "expensive": 7977,
      "Rocky": 7978,
      "novels": 7979,
      "meetings": 7980,
      "Veron": 7981,
      "harbour": 7982,
      "Commandos": 7983,
      "Crash": 7984,
      "Glass": 7985,
      "atinum": 7986,
      "Moro": 7987,
      "conduct": 7988,
      "Strapping": 7989,
      "narrative": 7990,
      "Import": 7991,
      "install": 7992,
      "preparation": 7993,
      "bowl": 7994,
      "engineers": 7995,
      "spores": 7996,
      "committed": 7997,
      "visitors": 7998,
      "Humpty": 7999,
      "concerns": 8000,
      "requested": 8001,
      "architectural": 8002,
      "purchase": 8003,
      "Justice": 8004,
      "weapon": 8005,
      "scientific": 8006,
      "altarpiece": 8007,
      "portrayed": 8008,
      "Nazi": 8009,
      "watershed": 8010,
      "emphasis": 8011,
      "smooth": 8012,
      "throne": 8013,
      "closure": 8014,
      "Katia": 8015,
      "turrets": 8016,
      "alleged": 8017,
      "Hospital": 8018,
      "repeated": 8019,
      "Gabbar": 8020,
      "reconnaissance": 8021,
      "Mahesh": 8022,
      "truth": 8023,
      "depicting": 8024,
      "Kirk": 8025,
      "reinforcements": 8026,
      "Witchcraft": 8027,
      "citizens": 8028,
      "Athletic": 8029,
      "Initially": 8030,
      "Watson": 8031,
      "resources": 8032,
      "Saturday": 8033,
      "Uygh": 8034,
      "Bracknell": 8035,
      "Ganganelli": 8036,
      "hygrometricus": 8037,
      "Oregon": 8038,
      "Sinai": 8039,
      "02": 8040,
      "360": 8041,
      "737": 8042,
      "9th": 8043,
      "Az": 8044,
      "Brist": 8045,
      "Cy": 8046,
      "Cadmium": 8047,
      "Dian": 8048,
      "Ep": 8049,
      "Fastra": 8050,
      "Jason": 8051,
      "Kings": 8052,
      "Knight": 8053,
      "Llos": 8054,
      "Mother": 8055,
      "Nf": 8056,
      "Nel": 8057,
      "Oak": 8058,
      "Pak": 8059,
      "Pier": 8060,
      "SNL": 8061,
      "Wing": 8062,
      "Zagre": 8063,
      "cena": 8064,
      "drug": 8065,
      "eigh": 8066,
      "fo": 8067,
      "festival": 8068,
      "gery": 8069,
      "hid": 8070,
      "ibl": 8071,
      "lu": 8072,
      "nations": 8073,
      "oh": 8074,
      "och": 8075,
      "phe": 8076,
      "pure": 8077,
      "praise": 8078,
      "rations": 8079,
      "rase": 8080,
      "tanks": 8081,
      "wolf": 8082,
      "zes": 8083,
      "ani": 8084,
      "rep": 8085,
      "enh": 8086,
      "stin": 8087,
      "aling": 8088,
      "alions": 8089,
      "iland": 8090,
      "ilation": 8091,
      "ador": 8092,
      "amid": 8093,
      "deGrom": 8094,
      "imer": 8095,
      "owski": 8096,
      "aggreg": 8097,
      "aganda": 8098,
      "apes": 8099,
      "umn": 8100,
      "resco": 8101,
      "ocese": 8102,
      "excess": 8103,
      "exists": 8104,
      "antly": 8105,
      "uding": 8106,
      "earning": 8107,
      "iang": 8108,
      "aft": 8109,
      "oren": 8110,
      "worn": 8111,
      "ranges": 8112,
      "evil": 8113,
      "Then": 8114,
      "rice": 8115,
      "angular": 8116,
      "icken": 8117,
      "coln": 8118,
      "relative": 8119,
      "soil": 8120,
      "Comedy": 8121,
      "Dean": 8122,
      "Death": 8123,
      "consum": 8124,
      "submitted": 8125,
      "doors": 8126,
      "specimen": 8127,
      "parody": 8128,
      "operating": 8129,
      "engagement": 8130,
      "servative": 8131,
      "Grace": 8132,
      "transition": 8133,
      "chest": 8134,
      "perspect": 8135,
      "ieties": 8136,
      "cycle": 8137,
      "ovil": 8138,
      "weekly": 8139,
      "characterized": 8140,
      "cris": 8141,
      "letters": 8142,
      "slop": 8143,
      "rape": 8144,
      "Highland": 8145,
      "oxide": 8146,
      "interesting": 8147,
      "1890": 8148,
      "acceptable": 8149,
      "settled": 8150,
      "graded": 8151,
      "Hills": 8152,
      "connection": 8153,
      "argues": 8154,
      "predomin": 8155,
      "ruler": 8156,
      "costs": 8157,
      "Trust": 8158,
      "massive": 8159,
      "deliber": 8160,
      "objectives": 8161,
      "Emperor": 8162,
      "nationally": 8163,
      "physics": 8164,
      "Olympics": 8165,
      "percentage": 8166,
      "documents": 8167,
      "prevented": 8168,
      "biggest": 8169,
      "corner": 8170,
      "literary": 8171,
      "bombard": 8172,
      "punct": 8173,
      "frequent": 8174,
      "races": 8175,
      "culmin": 8176,
      "Elect": 8177,
      "fitted": 8178,
      "Duke": 8179,
      "drove": 8180,
      "demonstrated": 8181,
      "vehicle": 8182,
      "Yeovil": 8183,
      "Vargas": 8184,
      "seeking": 8185,
      "Confeder": 8186,
      "youngest": 8187,
      "Fantasy": 8188,
      "column": 8189,
      "Children": 8190,
      "publisher": 8191,
      "Lincoln": 8192,
      "Austrian": 8193,
      "Roger": 8194,
      "behavior": 8195,
      "sisters": 8196,
      "crops": 8197,
      "accurate": 8198,
      "assassination": 8199,
      "stretch": 8200,
      "bridges": 8201,
      "iveness": 8202,
      "Building": 8203,
      "Algernon": 8204,
      "videos": 8205,
      "ipelago": 8206,
      "Elizabeth": 8207,
      "Díaz": 8208,
      "Llosa": 8209,
      "Cer": 8210,
      "Cop": 8211,
      "Fish": 8212,
      "Food": 8213,
      "Glan": 8214,
      "Horn": 8215,
      "List": 8216,
      "Liz": 8217,
      "Lane": 8218,
      "Lamb": 8219,
      "Nic": 8220,
      "Niel": 8221,
      "Plan": 8222,
      "Sax": 8223,
      "Square": 8224,
      "Sweet": 8225,
      "Tel": 8226,
      "Wis": 8227,
      "bom": 8228,
      "bag": 8229,
      "cards": 8230,
      "crossing": 8231,
      "dan": 8232,
      "fasc": 8233,
      "haw": 8234,
      "iest": 8235,
      "ogu": 8236,
      "rants": 8237,
      "sam": 8238,
      "sul": 8239,
      "wal": 8240,
      "zen": 8241,
      "inations": 8242,
      "inHg": 8243,
      "onia": 8244,
      "remarked": 8245,
      "reactor": 8246,
      "inge": 8247,
      "roots": 8248,
      "forty": 8249,
      "veland": 8250,
      "impl": 8251,
      "imate": 8252,
      "igation": 8253,
      "igins": 8254,
      "conservation": 8255,
      "apers": 8256,
      "opol": 8257,
      "comments": 8258,
      "shield": 8259,
      "shirt": 8260,
      "clin": 8261,
      "iller": 8262,
      "illes": 8263,
      "artwork": 8264,
      "estate": 8265,
      "twin": 8266,
      "string": 8267,
      "actual": 8268,
      "Stu": 8269,
      "pray": 8270,
      "intense": 8271,
      "oky": 8272,
      "format": 8273,
      "awny": 8274,
      "otherwise": 8275,
      "partial": 8276,
      "contribution": 8277,
      "ogen": 8278,
      "interpre": 8279,
      "tempo": 8280,
      "temples": 8281,
      "ilda": 8282,
      "regiment": 8283,
      "fourteen": 8284,
      "consent": 8285,
      "populations": 8286,
      "decides": 8287,
      "decisions": 8288,
      "Guild": 8289,
      "beltown": 8290,
      "poration": 8291,
      "reader": 8292,
      "Allen": 8293,
      "gets": 8294,
      "trials": 8295,
      "tribut": 8296,
      "talk": 8297,
      "Andre": 8298,
      "grey": 8299,
      "sentiment": 8300,
      "reviewed": 8301,
      "differences": 8302,
      "Peron": 8303,
      "productions": 8304,
      "Techn": 8305,
      "charted": 8306,
      "influential": 8307,
      "directors": 8308,
      "capturing": 8309,
      "Harold": 8310,
      "goods": 8311,
      "occurs": 8312,
      "driving": 8313,
      "professor": 8314,
      "Maryang": 8315,
      "respective": 8316,
      "selection": 8317,
      "Wilson": 8318,
      "models": 8319,
      "housing": 8320,
      "circulation": 8321,
      "thinking": 8322,
      "Tommy": 8323,
      "delivery": 8324,
      "poorly": 8325,
      "objects": 8326,
      "garrison": 8327,
      "roller": 8328,
      "convin": 8329,
      "transportation": 8330,
      "Campbeltown": 8331,
      "prisoners": 8332,
      "Stock": 8333,
      "Gwend": 8334,
      "secretary": 8335,
      "delayed": 8336,
      "Nazaire": 8337,
      "reserve": 8338,
      "Cleveland": 8339,
      "molecular": 8340,
      "Archaeological": 8341,
      "Confess": 8342,
      "Bruins": 8343,
      "apparently": 8344,
      "dominant": 8345,
      "Wolfpack": 8346,
      "Croat": 8347,
      "adaptation": 8348,
      "substantial": 8349,
      "passengers": 8350,
      "Magdalen": 8351,
      "Alfred": 8352,
      "acknowled": 8353,
      "concerts": 8354,
      "Library": 8355,
      "Wikipedia": 8356,
      "Veronica": 8357,
      "Zagreb": 8358,
      "Glanville": 8359,
      "1000": 8360,
      "69": 8361,
      "Bon": 8362,
      "Cred": 8363,
      "Cry": 8364,
      "Dw": 8365,
      "Dot": 8366,
      "Dave": 8367,
      "Denn": 8368,
      "Eric": 8369,
      "Gate": 8370,
      "Glo": 8371,
      "Hur": 8372,
      "Jeff": 8373,
      "Mack": 8374,
      "Mint": 8375,
      "Matt": 8376,
      "Num": 8377,
      "Nick": 8378,
      "Ost": 8379,
      "Pul": 8380,
      "Rick": 8381,
      "Sle": 8382,
      "Sher": 8383,
      "Such": 8384,
      "Tony": 8385,
      "Tax": 8386,
      "categ": 8387,
      "dimens": 8388,
      "fault": 8389,
      "gri": 8390,
      "gans": 8391,
      "hur": 8392,
      "hun": 8393,
      "lap": 8394,
      "lies": 8395,
      "mers": 8396,
      "mmet": 8397,
      "mbar": 8398,
      "mature": 8399,
      "mush": 8400,
      "pin": 8401,
      "rator": 8402,
      "tun": 8403,
      "tut": 8404,
      "wrec": 8405,
      "witch": 8406,
      "yield": 8407,
      "inher": 8408,
      "eration": 8409,
      "reform": 8410,
      "orb": 8411,
      "orious": 8412,
      "oribi": 8413,
      "iso": 8414,
      "icon": 8415,
      "acles": 8416,
      "adh": 8417,
      "adm": 8418,
      "secut": 8419,
      "beats": 8420,
      "urally": 8421,
      "deemed": 8422,
      "consc": 8423,
      "conference": 8424,
      "oting": 8425,
      "ulu": 8426,
      "approv": 8427,
      "plom": 8428,
      "abilities": 8429,
      "arest": 8430,
      "shift": 8431,
      "shares": 8432,
      "peaking": 8433,
      "neath": 8434,
      "illiant": 8435,
      "emon": 8436,
      "ocent": 8437,
      "earn": 8438,
      "avia": 8439,
      "assisted": 8440,
      "notably": 8441,
      "sery": 8442,
      "rank": 8443,
      "scr": 8444,
      "scope": 8445,
      "evol": 8446,
      "offering": 8447,
      "spend": 8448,
      "spore": 8449,
      "Anne": 8450,
      "Thus": 8451,
      "phrase": 8452,
      "Aldean": 8453,
      "Josh": 8454,
      "canal": 8455,
      "singers": 8456,
      "myst": 8457,
      "Deep": 8458,
      "lanes": 8459,
      "backing": 8460,
      "Attack": 8461,
      "Americans": 8462,
      "ologies": 8463,
      "atched": 8464,
      "Maya": 8465,
      "metall": 8466,
      "Isl": 8467,
      "mayor": 8468,
      "triple": 8469,
      "considers": 8470,
      "skill": 8471,
      "childhood": 8472,
      "battalions": 8473,
      "McNichol": 8474,
      "Stewart": 8475,
      "reviewers": 8476,
      "Polit": 8477,
      "storms": 8478,
      "Princess": 8479,
      "240": 8480,
      "factors": 8481,
      "profile": 8482,
      "movements": 8483,
      "destroyer": 8484,
      "posted": 8485,
      "vention": 8486,
      "Centre": 8487,
      "moderate": 8488,
      "diplom": 8489,
      "1902": 8490,
      "electronic": 8491,
      "temporarily": 8492,
      "1889": 8493,
      "harmon": 8494,
      "indicates": 8495,
      "Prize": 8496,
      "housed": 8497,
      "mingham": 8498,
      "civilian": 8499,
      "intensified": 8500,
      "teachers": 8501,
      "balance": 8502,
      "wicket": 8503,
      "Birmingham": 8504,
      "cules": 8505,
      "phenomen": 8506,
      "sculptures": 8507,
      "distinctive": 8508,
      "patterns": 8509,
      "struggled": 8510,
      "Miller": 8511,
      "Defence": 8512,
      "batsmen": 8513,
      "repairs": 8514,
      "junior": 8515,
      "Keys": 8516,
      "Julian": 8517,
      "restoration": 8518,
      "Rowley": 8519,
      "bbie": 8520,
      "neighbor": 8521,
      "Hawai": 8522,
      "emotional": 8523,
      "shrine": 8524,
      "bulk": 8525,
      "executed": 8526,
      "onomy": 8527,
      "arrested": 8528,
      "relegated": 8529,
      "cinema": 8530,
      "Dumpty": 8531,
      "sleep": 8532,
      "Utah": 8533,
      "parallel": 8534,
      "Phoen": 8535,
      "Hairan": 8536,
      "philos": 8537,
      "Front": 8538,
      "fundamental": 8539,
      "aboard": 8540,
      "Europa": 8541,
      "oxygen": 8542,
      "Bristol": 8543,
      "crisis": 8544,
      "52nd": 8545,
      "Bh": 8546,
      "Beach": 8547,
      "CS": 8548,
      "Cub": 8549,
      "Dur": 8550,
      "Dah": 8551,
      "Gamb": 8552,
      "Hong": 8553,
      "Hod": 8554,
      "Last": 8555,
      "Liam": 8556,
      "Lanc": 8557,
      "MI": 8558,
      "Mort": 8559,
      "Mach": 8560,
      "Pay": 8561,
      "Publ": 8562,
      "Pesh": 8563,
      "Sel": 8564,
      "Sign": 8565,
      "Sports": 8566,
      "SMS": 8567,
      "Tong": 8568,
      "bours": 8569,
      "bishops": 8570,
      "dney": 8571,
      "gau": 8572,
      "hills": 8573,
      "hockey": 8574,
      "iour": 8575,
      "lig": 8576,
      "nav": 8577,
      "pa": 8578,
      "sin": 8579,
      "sale": 8580,
      "tical": 8581,
      "vig": 8582,
      "vard": 8583,
      "vious": 8584,
      "thi": 8585,
      "inus": 8586,
      "inich": 8587,
      "informed": 8588,
      "institution": 8589,
      "online": 8590,
      "revers": 8591,
      "ori": 8592,
      "enemies": 8593,
      "isc": 8594,
      "toured": 8595,
      "toler": 8596,
      "icate": 8597,
      "acing": 8598,
      "oming": 8599,
      "cha": 8600,
      "champions": 8601,
      "beating": 8602,
      "irts": 8603,
      "owing": 8604,
      "ceased": 8605,
      "ulating": 8606,
      "rik": 8607,
      "rivers": 8608,
      "umping": 8609,
      "platinum": 8610,
      "modif": 8611,
      "shor": 8612,
      "ongoing": 8613,
      "quant": 8614,
      "aviation": 8615,
      "geon": 8616,
      "duet": 8617,
      "feels": 8618,
      "boys": 8619,
      "timber": 8620,
      "comprom": 8621,
      "ignment": 8622,
      "formally": 8623,
      "scattered": 8624,
      "Health": 8625,
      "inclusion": 8626,
      "displaced": 8627,
      "Thai": 8628,
      "crete": 8629,
      "phoon": 8630,
      "angle": 8631,
      "understand": 8632,
      "Alb": 8633,
      "Alfa": 8634,
      "Rebbie": 8635,
      "canons": 8636,
      "produces": 8637,
      "releases": 8638,
      "10th": 8639,
      "Assy": 8640,
      "129": 8641,
      "steep": 8642,
      "engines": 8643,
      "continental": 8644,
      "warning": 8645,
      "drinking": 8646,
      "transits": 8647,
      "milit": 8648,
      "Guin": 8649,
      "14th": 8650,
      "valley": 8651,
      "westward": 8652,
      "runners": 8653,
      "topped": 8654,
      "depending": 8655,
      "readers": 8656,
      "variation": 8657,
      "marking": 8658,
      "promised": 8659,
      "functions": 8660,
      "11th": 8661,
      "skull": 8662,
      "visiting": 8663,
      "breed": 8664,
      "margin": 8665,
      "difference": 8666,
      "explo": 8667,
      "facts": 8668,
      "Event": 8669,
      "slip": 8670,
      "21st": 8671,
      "Performan": 8672,
      "strongest": 8673,
      "Twins": 8674,
      "Twenty": 8675,
      "magn": 8676,
      "Trou": 8677,
      "Tracy": 8678,
      "Trinity": 8679,
      "mountains": 8680,
      "Harrison": 8681,
      "Together": 8682,
      "diagn": 8683,
      "Minnes": 8684,
      "significance": 8685,
      "1895": 8686,
      "indicating": 8687,
      "conclusion": 8688,
      "materials": 8689,
      "Morning": 8690,
      "accum": 8691,
      "compliment": 8692,
      "daughters": 8693,
      "blocked": 8694,
      "preced": 8695,
      "spoke": 8696,
      "establishing": 8697,
      "Operations": 8698,
      "Territ": 8699,
      "XeO": 8700,
      "discussion": 8701,
      "failing": 8702,
      "familiar": 8703,
      "Critics": 8704,
      "tournaments": 8705,
      "departure": 8706,
      "withdrawal": 8707,
      "hospitals": 8708,
      "investigation": 8709,
      "tombs": 8710,
      "suitable": 8711,
      "Basement": 8712,
      "pulled": 8713,
      "Books": 8714,
      "Commons": 8715,
      "NOK": 8716,
      "brigade": 8717,
      "sailors": 8718,
      "southeastern": 8719,
      "climate": 8720,
      "submarines": 8721,
      "inscriptions": 8722,
      "restrict": 8723,
      "frigates": 8724,
      "Rapids": 8725,
      "assembled": 8726,
      "Joyful": 8727,
      "fatal": 8728,
      "flagship": 8729,
      "distinguished": 8730,
      "false": 8731,
      "semifinals": 8732,
      "Cadets": 8733,
      "embarked": 8734,
      "Jacob": 8735,
      "theatrical": 8736,
      "Championships": 8737,
      "astronom": 8738,
      "appropriate": 8739,
      "simultaneously": 8740,
      "Trophy": 8741,
      "Treaty": 8742,
      "prepare": 8743,
      "Pakistan": 8744,
      "Stuart": 8745,
      "Peshkin": 8746,
      "Minnesota": 8747,
      "09": 8748,
      "74": 8749,
      "AS": 8750,
      "Ban": 8751,
      "Bono": 8752,
      "Cher": 8753,
      "Fis": 8754,
      "Fem": 8755,
      "Fire": 8756,
      "Gun": 8757,
      "Hamp": 8758,
      "Kev": 8759,
      "Khan": 8760,
      "Kaiman": 8761,
      "Lyn": 8762,
      "Pas": 8763,
      "Raf": 8764,
      "ROK": 8765,
      "Sac": 8766,
      "Sky": 8767,
      "Toky": 8768,
      "Us": 8769,
      "Wed": 8770,
      "Wild": 8771,
      "XIII": 8772,
      "bull": 8773,
      "banks": 8774,
      "cou": 8775,
      "dads": 8776,
      "duration": 8777,
      "fame": 8778,
      "fishing": 8779,
      "gift": 8780,
      "hat": 8781,
      "huge": 8782,
      "ju": 8783,
      "kamed": 8784,
      "las": 8785,
      "mam": 8786,
      "pes": 8787,
      "pounds": 8788,
      "saved": 8789,
      "tank": 8790,
      "vul": 8791,
      "vault": 8792,
      "zi": 8793,
      "zinc": 8794,
      "ín": 8795,
      "instru": 8796,
      "eru": 8797,
      "anne": 8798,
      "thed": 8799,
      "ensu": 8800,
      "encing": 8801,
      "itter": 8802,
      "itall": 8803,
      "icial": 8804,
      "aceratops": 8805,
      "oma": 8806,
      "dell": 8807,
      "determ": 8808,
      "iths": 8809,
      "unnamed": 8810,
      "agu": 8811,
      "elder": 8812,
      "byn": 8813,
      "ribute": 8814,
      "1923": 8815,
      "Ingrid": 8816,
      "illing": 8817,
      "odor": 8818,
      "permitted": 8819,
      "alsock": 8820,
      "avo": 8821,
      "2000s": 8822,
      "Stansfield": 8823,
      "ported": 8824,
      "playoffs": 8825,
      "lling": 8826,
      "1849": 8827,
      "guide": 8828,
      "liver": 8829,
      "afterwards": 8830,
      "afternoon": 8831,
      "creative": 8832,
      "ailing": 8833,
      "rowed": 8834,
      "tenth": 8835,
      "Leic": 8836,
      "Leeds": 8837,
      "101": 8838,
      "Comple": 8839,
      "osex": 8840,
      "medal": 8841,
      "specimens": 8842,
      "Conne": 8843,
      "Contro": 8844,
      "founder": 8845,
      "succeed": 8846,
      "Brun": 8847,
      "originated": 8848,
      "Heritage": 8849,
      "successive": 8850,
      "Works": 8851,
      "ashire": 8852,
      "Wars": 8853,
      "Room": 8854,
      "Robyn": 8855,
      "topes": 8856,
      "cutting": 8857,
      "requires": 8858,
      "extension": 8859,
      "flew": 8860,
      "visual": 8861,
      "campus": 8862,
      "reviewer": 8863,
      "ensem": 8864,
      "colleagues": 8865,
      "refuge": 8866,
      "sitcom": 8867,
      "Harry": 8868,
      "graphics": 8869,
      "basin": 8870,
      "Register": 8871,
      "Bergen": 8872,
      "pairs": 8873,
      "Cape": 8874,
      "chapters": 8875,
      "Medieval": 8876,
      "liner": 8877,
      "Moon": 8878,
      "settlers": 8879,
      "Commandments": 8880,
      "programs": 8881,
      "ucks": 8882,
      "boundary": 8883,
      "potentially": 8884,
      "satell": 8885,
      "1861": 8886,
      "salary": 8887,
      "amounts": 8888,
      "consistently": 8889,
      "aptist": 8890,
      "Overall": 8891,
      "girls": 8892,
      "grasses": 8893,
      "departed": 8894,
      "Enterprise": 8895,
      "reflected": 8896,
      "Protestant": 8897,
      "Garden": 8898,
      "Delano": 8899,
      "burned": 8900,
      "Toronto": 8901,
      "steps": 8902,
      "dynasty": 8903,
      "detected": 8904,
      "candidates": 8905,
      "Cambridge": 8906,
      "Blood": 8907,
      "Mariah": 8908,
      "laboratory": 8909,
      "FITs": 8910,
      "Legacy": 8911,
      "devast": 8912,
      "mechanical": 8913,
      "hemmem": 8914,
      "Hospitall": 8915,
      "Arikamed": 8916,
      "proposal": 8917,
      "onymous": 8918,
      "disturbance": 8919,
      "trouble": 8920,
      "Honor": 8921,
      "stabil": 8922,
      "accommo": 8923,
      "universities": 8924,
      "accomplish": 8925,
      "strengthened": 8926,
      "cleroder": 8927,
      "Gibson": 8928,
      "Remix": 8929,
      "strategic": 8930,
      "binding": 8931,
      "Suez": 8932,
      "Carty": 8933,
      "Loyalsock": 8934,
      "convection": 8935,
      "inhabitants": 8936,
      "Profess": 8937,
      "hidden": 8938,
      "convinced": 8939,
      "Gwendolen": 8940,
      "Lancashire": 8941,
      "modified": 8942,
      "Guinness": 8943,
      "Kaimanawa": 8944,
      "Tokyo": 8945,
      "determine": 8946,
      "Arikamedu": 8947,
      "06": 8948,
      "78": 8949,
      "Ages": 8950,
      "Econom": 8951,
      "ERA": 8952,
      "Goth": 8953,
      "Il": 8954,
      "Ian": 8955,
      "Ish": 8956,
      "Kn": 8957,
      "Kyle": 8958,
      "Lost": 8959,
      "Loren": 8960,
      "Mes": 8961,
      "Maur": 8962,
      "Naval": 8963,
      "Pit": 8964,
      "Ré": 8965,
      "Scleroder": 8966,
      "fil": 8967,
      "gap": 8968,
      "gross": 8969,
      "gaining": 8970,
      "iary": 8971,
      "loud": 8972,
      "mint": 8973,
      "nery": 8974,
      "oct": 8975,
      "pages": 8976,
      "sailed": 8977,
      "tawny": 8978,
      "uit": 8979,
      "vin": 8980,
      "vit": 8981,
      "zer": 8982,
      "inno": 8983,
      "indeed": 8984,
      "anime": 8985,
      "onium": 8986,
      "remin": 8987,
      "rebuilt": 8988,
      "remember": 8989,
      "esis": 8990,
      "lect": 8991,
      "leaf": 8992,
      "acute": 8993,
      "enters": 8994,
      "adjust": 8995,
      "seemed": 8996,
      "amin": 8997,
      "imet": 8998,
      "unlikely": 8999,
      "confront": 9000,
      "condem": 9001,
      "conjunction": 9002,
      "concrete": 9003,
      "idation": 9004,
      "usade": 9005,
      "resol": 9006,
      "moor": 9007,
      "pete": 9008,
      "therapy": 9009,
      "ighters": 9010,
      "oded": 9011,
      "mental": 9012,
      "ieth": 9013,
      "avan": 9014,
      "Chau": 9015,
      "afford": 9016,
      "achute": 9017,
      "pole": 9018,
      "recall": 9019,
      "intent": 9020,
      "intelle": 9021,
      "scrap": 9022,
      "ureau": 9023,
      "Heart": 9024,
      "adequ": 9025,
      "Ansel": 9026,
      "Until": 9027,
      "coat": 9028,
      "flesh": 9029,
      "intercept": 9030,
      "archipelago": 9031,
      "angel": 9032,
      "retreat": 9033,
      "Release": 9034,
      "tennis": 9035,
      "relie": 9036,
      "charged": 9037,
      "writings": 9038,
      "tona": 9039,
      "ilyn": 9040,
      "subsid": 9041,
      "brut": 9042,
      "supplement": 9043,
      "choose": 9044,
      "Show": 9045,
      "curved": 9046,
      "thereafter": 9047,
      "mathem": 9048,
      "useful": 9049,
      "Marc": 9050,
      "Marilyn": 9051,
      "describe": 9052,
      "Ground": 9053,
      "succession": 9054,
      "Work": 9055,
      "polar": 9056,
      "complement": 9057,
      "passion": 9058,
      "receives": 9059,
      "volumes": 9060,
      "defending": 9061,
      "sixteen": 9062,
      "Clair": 9063,
      "armored": 9064,
      "cargo": 9065,
      "Janet": 9066,
      "Manuel": 9067,
      "sketch": 9068,
      "Christopher": 9069,
      "incial": 9070,
      "sequel": 9071,
      "organisation": 9072,
      "personality": 9073,
      "handed": 9074,
      "Ortona": 9075,
      "initiated": 9076,
      "stronger": 9077,
      "formerly": 9078,
      "putting": 9079,
      "kills": 9080,
      "structural": 9081,
      "Royston": 9082,
      "clearly": 9083,
      "rocks": 9084,
      "interests": 9085,
      "ospel": 9086,
      "villages": 9087,
      "donated": 9088,
      "Christianity": 9089,
      "ruling": 9090,
      "synthesis": 9091,
      "holm": 9092,
      "blockade": 9093,
      "Artist": 9094,
      "definition": 9095,
      "Merri": 9096,
      "application": 9097,
      "seriously": 9098,
      "Jimmy": 9099,
      "jobs": 9100,
      "revised": 9101,
      "licens": 9102,
      "Duarte": 9103,
      "innings": 9104,
      "concentration": 9105,
      "petition": 9106,
      "flowers": 9107,
      "Industri": 9108,
      "Nevertheless": 9109,
      "Special": 9110,
      "Adams": 9111,
      "journalist": 9112,
      "Veeru": 9113,
      "clothes": 9114,
      "Village": 9115,
      "loyd": 9116,
      "Felicia": 9117,
      "Aviation": 9118,
      "Gallery": 9119,
      "convention": 9120,
      "usader": 9121,
      "dispute": 9122,
      "elsewhere": 9123,
      "cancelled": 9124,
      "quoted": 9125,
      "behaviour": 9126,
      "Bernard": 9127,
      "digital": 9128,
      "Gilbert": 9129,
      "eliminated": 9130,
      "frigate": 9131,
      "suspended": 9132,
      "Leonardo": 9133,
      "tribes": 9134,
      "Voyage": 9135,
      "Bulgar": 9136,
      "picture": 9137,
      "clothing": 9138,
      "Margaret": 9139,
      "Kennedy": 9140,
      "remnants": 9141,
      "seventeen": 9142,
      "Hudson": 9143,
      "Immort": 9144,
      "Pokiri": 9145,
      "absolute": 9146,
      "Roberts": 9147,
      "Saxon": 9148,
      "Confessions": 9149,
      "Credits": 9150,
      "Kevin": 9151,
      "intellect": 9152,
      "Anselm": 9153,
      "08": 9154,
      "112": 9155,
      "Batter": 9156,
      "Candid": 9157,
      "Die": 9158,
      "FL": 9159,
      "Ford": 9160,
      "Fear": 9161,
      "Flow": 9162,
      "Gon": 9163,
      "Jen": 9164,
      "Jar": 9165,
      "Kate": 9166,
      "Kub": 9167,
      "Mix": 9168,
      "Pel": 9169,
      "Ras": 9170,
      "Rest": 9171,
      "Sid": 9172,
      "Sab": 9173,
      "Seven": 9174,
      "TA": 9175,
      "Xbox": 9176,
      "bore": 9177,
      "bones": 9178,
      "creek": 9179,
      "dign": 9180,
      "fest": 9181,
      "fires": 9182,
      "ii": 9183,
      "iod": 9184,
      "mad": 9185,
      "mask": 9186,
      "pig": 9187,
      "sitting": 9188,
      "tissue": 9189,
      "tape": 9190,
      "vs": 9191,
      "vals": 9192,
      "inate": 9193,
      "independence": 9194,
      "eries": 9195,
      "reh": 9196,
      "reper": 9197,
      "reopened": 9198,
      "atop": 9199,
      "orship": 9200,
      "stair": 9201,
      "alt": 9202,
      "alph": 9203,
      "asking": 9204,
      "esque": 9205,
      "tos": 9206,
      "tot": 9207,
      "tox": 9208,
      "icity": 9209,
      "seats": 9210,
      "amer": 9211,
      "oms": 9212,
      "chain": 9213,
      "urer": 9214,
      "ira": 9215,
      "tering": 9216,
      "contest": 9217,
      "idae": 9218,
      "tees": 9219,
      "oples": 9220,
      "1921": 9221,
      "umph": 9222,
      "rescu": 9223,
      "probe": 9224,
      "trick": 9225,
      "ivan": 9226,
      "grain": 9227,
      "duo": 9228,
      "Stakes": 9229,
      "portions": 9230,
      "prime": 9231,
      "prises": 9232,
      "compound": 9233,
      "oke": 9234,
      "loved": 9235,
      "loose": 9236,
      "partially": 9237,
      "spending": 9238,
      "displayed": 9239,
      "code": 9240,
      "merged": 9241,
      "interse": 9242,
      "annah": 9243,
      "verses": 9244,
      "underwent": 9245,
      "retre": 9246,
      "themed": 9247,
      "Who": 9248,
      "elections": 9249,
      "Commer": 9250,
      "Deal": 9251,
      "caps": 9252,
      "ission": 9253,
      "surgery": 9254,
      "arrive": 9255,
      "Construction": 9256,
      "locally": 9257,
      "ballad": 9258,
      "parade": 9259,
      "operational": 9260,
      "continent": 9261,
      "identity": 9262,
      "belt": 9263,
      "values": 9264,
      "chemother": 9265,
      "Isles": 9266,
      "legit": 9267,
      "aimed": 9268,
      "ctoral": 9269,
      "varied": 9270,
      "fund": 9271,
      "talking": 9272,
      "counties": 9273,
      "Northumber": 9274,
      "penet": 9275,
      "storylines": 9276,
      "aska": 9277,
      "Ors": 9278,
      "denomin": 9279,
      "eventual": 9280,
      "Weather": 9281,
      "household": 9282,
      "starring": 9283,
      "closest": 9284,
      "tourist": 9285,
      "everyone": 9286,
      "inducted": 9287,
      "promotional": 9288,
      "1901": 9289,
      "studying": 9290,
      "electro": 9291,
      "anticip": 9292,
      "fifteen": 9293,
      "graduate": 9294,
      "employees": 9295,
      "Syria": 9296,
      "Morrison": 9297,
      "switch": 9298,
      "questions": 9299,
      "Browns": 9300,
      "honour": 9301,
      "languages": 9302,
      "businesses": 9303,
      "educational": 9304,
      "Reser": 9305,
      "paying": 9306,
      "Constantin": 9307,
      "subjects": 9308,
      "administered": 9309,
      "Boys": 9310,
      "credit": 9311,
      "expert": 9312,
      "celebrated": 9313,
      "punishment": 9314,
      "Samuel": 9315,
      "judge": 9316,
      "neutron": 9317,
      "Buen": 9318,
      "settlements": 9319,
      "moments": 9320,
      "Susque": 9321,
      "chancel": 9322,
      "Vegas": 9323,
      "mortal": 9324,
      "Colonna": 9325,
      "duty": 9326,
      "uzzi": 9327,
      "Larry": 9328,
      "camera": 9329,
      "atoms": 9330,
      "microscop": 9331,
      "Gabri": 9332,
      "jackrabbits": 9333,
      "ownership": 9334,
      "Hereford": 9335,
      "relegation": 9336,
      "pregnant": 9337,
      "pregnancy": 9338,
      "Originally": 9339,
      "anthrop": 9340,
      "Exeter": 9341,
      "absorbed": 9342,
      "empire": 9343,
      "divorce": 9344,
      "protagonist": 9345,
      "cannon": 9346,
      "registered": 9347,
      "Return": 9348,
      "neutrino": 9349,
      "Robinson": 9350,
      "predecessor": 9351,
      "teorological": 9352,
      "Importance": 9353,
      "interpreted": 9354,
      "Dwight": 9355,
      "approval": 9356,
      "mystery": 9357,
      "Eventually": 9358,
      "Performance": 9359,
      "Leicester": 9360,
      "Gothic": 9361,
      "Lorenzo": 9362,
      "Chauvel": 9363,
      "Merrifield": 9364,
      "Northumberland": 9365,
      "73": 9366,
      "83": 9367,
      "Aud": 9368,
      "BN": 9369,
      "Belt": 9370,
      "Budd": 9371,
      "Cu": 9372,
      "Cir": 9373,
      "CAT": 9374,
      "Eight": 9375,
      "Flo": 9376,
      "Flower": 9377,
      "Hip": 9378,
      "Have": 9379,
      "Hadd": 9380,
      "Krist": 9381,
      "Let": 9382,
      "Mak": 9383,
      "Mile": 9384,
      "Mann": 9385,
      "OS": 9386,
      "Pil": 9387,
      "Pur": 9388,
      "Sn": 9389,
      "Set": 9390,
      "Sull": 9391,
      "Wu": 9392,
      "Wey": 9393,
      "Zrí": 9394,
      "aic": 9395,
      "bol": 9396,
      "barri": 9397,
      "banned": 9398,
      "cali": 9399,
      "fro": 9400,
      "fate": 9401,
      "gian": 9402,
      "hitting": 9403,
      "hPa": 9404,
      "ipe": 9405,
      "laugh": 9406,
      "navy": 9407,
      "punt": 9408,
      "rains": 9409,
      "squ": 9410,
      "spr": 9411,
      "saint": 9412,
      "tin": 9413,
      "tent": 9414,
      "vital": 9415,
      "wider": 9416,
      "inqu": 9417,
      "infer": 9418,
      "onelli": 9419,
      "reject": 9420,
      "atropical": 9421,
      "sted": 9422,
      "ilis": 9423,
      "adir": 9424,
      "seed": 9425,
      "sees": 9426,
      "uni": 9427,
      "unless": 9428,
      "idal": 9429,
      "rien": 9430,
      "opy": 9431,
      "ophy": 9432,
      "1912": 9433,
      "1924": 9434,
      "compete": 9435,
      "abund": 9436,
      "proceeded": 9437,
      "pest": 9438,
      "trait": 9439,
      "osy": 9440,
      "artistic": 9441,
      "ocy": 9442,
      "odd": 9443,
      "ivals": 9444,
      "ights": 9445,
      "strict": 9446,
      "Stat": 9447,
      "Stay": 9448,
      "Stones": 9449,
      "compreh": 9450,
      "oko": 9451,
      "aude": 9452,
      "ranks": 9453,
      "scribed": 9454,
      "offshore": 9455,
      "commem": 9456,
      "disput": 9457,
      "Those": 9458,
      "acea": 9459,
      "annadh": 9460,
      "noise": 9461,
      "ailand": 9462,
      "rypton": 9463,
      "obonelli": 9464,
      "Whit": 9465,
      "Engine": 9466,
      "effic": 9467,
      "Johnny": 9468,
      "Conservation": 9469,
      "operates": 9470,
      "downtown": 9471,
      "signs": 9472,
      "identify": 9473,
      "couldn": 9474,
      "140": 9475,
      "persons": 9476,
      "presentation": 9477,
      "Warsaw": 9478,
      "legend": 9479,
      "Blues": 9480,
      "Being": 9481,
      "Beau": 9482,
      "armor": 9483,
      "characteristic": 9484,
      "Manager": 9485,
      "considering": 9486,
      "marc": 9487,
      "construct": 9488,
      "Monument": 9489,
      "Web": 9490,
      "facility": 9491,
      "amongst": 9492,
      "Mountains": 9493,
      "historically": 9494,
      "Aircraft": 9495,
      "aurus": 9496,
      "Brigades": 9497,
      "Actress": 9498,
      "searching": 9499,
      "announcement": 9500,
      "sounds": 9501,
      "occurring": 9502,
      "statues": 9503,
      "audition": 9504,
      "1907": 9505,
      "Portugu": 9506,
      "circle": 9507,
      "Finn": 9508,
      "Pozz": 9509,
      "experiences": 9510,
      "Medway": 9511,
      "Represent": 9512,
      "grows": 9513,
      "graduated": 9514,
      "hostile": 9515,
      "Sydney": 9516,
      "Players": 9517,
      "programme": 9518,
      "violacea": 9519,
      "honours": 9520,
      "measuring": 9521,
      "measured": 9522,
      "Republican": 9523,
      "compositions": 9524,
      "preparing": 9525,
      "Studies": 9526,
      "animated": 9527,
      "Artillery": 9528,
      "anza": 9529,
      "definite": 9530,
      "Metro": 9531,
      "Singh": 9532,
[...]
